unsigned char model_tflite[] = {
  0x1c, 0x00, 0x00, 0x00, 0x54, 0x46, 0x4c, 0x33, 0x14, 0x00, 0x20, 0x00,
  0x1c, 0x00, 0x18, 0x00, 0x14, 0x00, 0x10, 0x00, 0x0c, 0x00, 0x00, 0x00,
  0x08, 0x00, 0x04, 0x00, 0x14, 0x00, 0x00, 0x00, 0x1c, 0x00, 0x00, 0x00,
  0x88, 0x00, 0x00, 0x00, 0xe0, 0x00, 0x00, 0x00, 0xec, 0x1d, 0x00, 0x00,
  0xfc, 0x1d, 0x00, 0x00, 0x94, 0x35, 0x00, 0x00, 0x03, 0x00, 0x00, 0x00,
  0x01, 0x00, 0x00, 0x00, 0x04, 0x00, 0x00, 0x00, 0x1a, 0xe1, 0xff, 0xff,
  0x0c, 0x00, 0x00, 0x00, 0x1c, 0x00, 0x00, 0x00, 0x40, 0x00, 0x00, 0x00,
  0x0f, 0x00, 0x00, 0x00, 0x73, 0x65, 0x72, 0x76, 0x69, 0x6e, 0x67, 0x5f,
  0x64, 0x65, 0x66, 0x61, 0x75, 0x6c, 0x74, 0x00, 0x01, 0x00, 0x00, 0x00,
  0x04, 0x00, 0x00, 0x00, 0x94, 0xff, 0xff, 0xff, 0x18, 0x00, 0x00, 0x00,
  0x04, 0x00, 0x00, 0x00, 0x0e, 0x00, 0x00, 0x00, 0x6f, 0x75, 0x74, 0x70,
  0x75, 0x74, 0x5f, 0x73, 0x6f, 0x66, 0x74, 0x6d, 0x61, 0x78, 0x00, 0x00,
  0x01, 0x00, 0x00, 0x00, 0x04, 0x00, 0x00, 0x00, 0xe2, 0xe1, 0xff, 0xff,
  0x04, 0x00, 0x00, 0x00, 0x05, 0x00, 0x00, 0x00, 0x69, 0x6e, 0x70, 0x75,
  0x74, 0x00, 0x00, 0x00, 0x02, 0x00, 0x00, 0x00, 0x34, 0x00, 0x00, 0x00,
  0x04, 0x00, 0x00, 0x00, 0xdc, 0xff, 0xff, 0xff, 0x1b, 0x00, 0x00, 0x00,
  0x04, 0x00, 0x00, 0x00, 0x13, 0x00, 0x00, 0x00, 0x43, 0x4f, 0x4e, 0x56,
  0x45, 0x52, 0x53, 0x49, 0x4f, 0x4e, 0x5f, 0x4d, 0x45, 0x54, 0x41, 0x44,
  0x41, 0x54, 0x41, 0x00, 0x08, 0x00, 0x0c, 0x00, 0x08, 0x00, 0x04, 0x00,
  0x08, 0x00, 0x00, 0x00, 0x1a, 0x00, 0x00, 0x00, 0x04, 0x00, 0x00, 0x00,
  0x13, 0x00, 0x00, 0x00, 0x6d, 0x69, 0x6e, 0x5f, 0x72, 0x75, 0x6e, 0x74,
  0x69, 0x6d, 0x65, 0x5f, 0x76, 0x65, 0x72, 0x73, 0x69, 0x6f, 0x6e, 0x00,
  0x1c, 0x00, 0x00, 0x00, 0x08, 0x1d, 0x00, 0x00, 0x00, 0x1d, 0x00, 0x00,
  0xe0, 0x1c, 0x00, 0x00, 0xc4, 0x1c, 0x00, 0x00, 0xa8, 0x1c, 0x00, 0x00,
  0x90, 0x1c, 0x00, 0x00, 0x6c, 0x1c, 0x00, 0x00, 0x4c, 0x18, 0x00, 0x00,
  0xfc, 0x17, 0x00, 0x00, 0xec, 0x11, 0x00, 0x00, 0x5c, 0x11, 0x00, 0x00,
  0x4c, 0x05, 0x00, 0x00, 0xbc, 0x04, 0x00, 0x00, 0xec, 0x00, 0x00, 0x00,
  0xe4, 0x00, 0x00, 0x00, 0xdc, 0x00, 0x00, 0x00, 0xd4, 0x00, 0x00, 0x00,
  0xcc, 0x00, 0x00, 0x00, 0xc4, 0x00, 0x00, 0x00, 0xbc, 0x00, 0x00, 0x00,
  0xb4, 0x00, 0x00, 0x00, 0xac, 0x00, 0x00, 0x00, 0xa4, 0x00, 0x00, 0x00,
  0x9c, 0x00, 0x00, 0x00, 0x94, 0x00, 0x00, 0x00, 0x8c, 0x00, 0x00, 0x00,
  0x6c, 0x00, 0x00, 0x00, 0x04, 0x00, 0x00, 0x00, 0xc6, 0xe2, 0xff, 0xff,
  0x04, 0x00, 0x00, 0x00, 0x58, 0x00, 0x00, 0x00, 0x0c, 0x00, 0x00, 0x00,
  0x08, 0x00, 0x0e, 0x00, 0x08, 0x00, 0x04, 0x00, 0x08, 0x00, 0x00, 0x00,
  0x10, 0x00, 0x00, 0x00, 0x28, 0x00, 0x00, 0x00, 0x00, 0x00, 0x06, 0x00,
  0x08, 0x00, 0x04, 0x00, 0x06, 0x00, 0x00, 0x00, 0x04, 0x00, 0x00, 0x00,
  0x01, 0x00, 0x00, 0x00, 0xeb, 0x03, 0x00, 0x00, 0x00, 0x00, 0x0a, 0x00,
  0x10, 0x00, 0x0c, 0x00, 0x08, 0x00, 0x04, 0x00, 0x0a, 0x00, 0x00, 0x00,
  0x02, 0x00, 0x00, 0x00, 0x02, 0x00, 0x00, 0x00, 0x04, 0x00, 0x00, 0x00,
  0x06, 0x00, 0x00, 0x00, 0x32, 0x2e, 0x31, 0x35, 0x2e, 0x30, 0x00, 0x00,
  0x2a, 0xe3, 0xff, 0xff, 0x04, 0x00, 0x00, 0x00, 0x10, 0x00, 0x00, 0x00,
  0x31, 0x2e, 0x31, 0x34, 0x2e, 0x30, 0x00, 0x00, 0x00, 0x00, 0x00, 0x00,
  0x00, 0x00, 0x00, 0x00, 0x08, 0xcd, 0xff, 0xff, 0x0c, 0xcd, 0xff, 0xff,
  0x10, 0xcd, 0xff, 0xff, 0x14, 0xcd, 0xff, 0xff, 0x18, 0xcd, 0xff, 0xff,
  0x1c, 0xcd, 0xff, 0xff, 0x20, 0xcd, 0xff, 0xff, 0x24, 0xcd, 0xff, 0xff,
  0x28, 0xcd, 0xff, 0xff, 0x2c, 0xcd, 0xff, 0xff, 0x30, 0xcd, 0xff, 0xff,
  0x34, 0xcd, 0xff, 0xff, 0x76, 0xe3, 0xff, 0xff, 0x04, 0x00, 0x00, 0x00,
  0xc0, 0x03, 0x00, 0x00, 0x49, 0x13, 0x56, 0xec, 0xc2, 0xc1, 0x4e, 0xc3,
  0x0a, 0x34, 0xdc, 0xc1, 0xde, 0x37, 0x4e, 0xe0, 0xb9, 0x9e, 0x5e, 0x56,
  0x14, 0xa0, 0x30, 0xef, 0xe5, 0xa4, 0x3d, 0x04, 0x95, 0x81, 0x7b, 0x48,
  0x2b, 0xd3, 0x81, 0x37, 0xa1, 0x07, 0xdf, 0x51, 0xce, 0x2b, 0x64, 0x53,
  0x2d, 0x37, 0xa4, 0x14, 0x17, 0x16, 0x71, 0x53, 0x68, 0x72, 0xdd, 0xed,
  0x4e, 0xd1, 0x31, 0xc5, 0x26, 0xdf, 0x72, 0x9c, 0xbd, 0xe3, 0xbd, 0x5f,
  0x15, 0xa4, 0xa1, 0x45, 0x43, 0xa7, 0x7c, 0x43, 0x4b, 0x9c, 0xec, 0xa6,
  0x97, 0x3d, 0xd0, 0xc1, 0x3f, 0xa4, 0x84, 0x7f, 0x55, 0x2c, 0x23, 0xc1,
  0xa9, 0xa1, 0x7c, 0xc7, 0xea, 0x7d, 0x17, 0x9c, 0x1c, 0x1a, 0x5b, 0xdd,
  0xe6, 0xaa, 0x20, 0x84, 0x6a, 0xdc, 0x9e, 0x81, 0x87, 0xbd, 0xba, 0x8d,
  0x03, 0xa4, 0xae, 0xaa, 0x0e, 0xaf, 0x63, 0xda, 0x2b, 0x21, 0xe6, 0xc9,
  0x26, 0xa7, 0x9f, 0x44, 0x04, 0x94, 0x9b, 0x81, 0x4a, 0x59, 0xc0, 0x52,
  0x4f, 0x19, 0xa0, 0x66, 0xc5, 0xde, 0xe0, 0xe2, 0xe1, 0xa2, 0x24, 0xb5,
  0x7f, 0xef, 0xc8, 0xd8, 0xc9, 0x4e, 0x27, 0xc7, 0x03, 0xa3, 0xfa, 0x31,
  0x1b, 0x5f, 0x62, 0x28, 0xa5, 0x2e, 0x97, 0x13, 0xfa, 0x5e, 0x7c, 0xc2,
  0x3f, 0xb8, 0xd4, 0x88, 0x24, 0x49, 0xe8, 0xdb, 0x99, 0xbc, 0x43, 0x42,
  0xd9, 0xf5, 0xd9, 0xb4, 0x14, 0xfe, 0x4c, 0xc7, 0x7f, 0x8a, 0xd0, 0xf9,
  0x67, 0xec, 0x40, 0xce, 0x40, 0x2f, 0xeb, 0xf9, 0x02, 0x20, 0x5e, 0x7f,
  0xcf, 0x42, 0x86, 0x12, 0x4c, 0x1f, 0x61, 0x4f, 0x35, 0xf8, 0xbd, 0xee,
  0xe0, 0x2e, 0x22, 0xad, 0xde, 0x30, 0xf8, 0xbd, 0x53, 0xa8, 0x0f, 0xd5,
  0x98, 0xa1, 0x37, 0xa1, 0x3d, 0xa5, 0xce, 0x83, 0x63, 0x7f, 0xc6, 0xab,
  0x98, 0x52, 0x9a, 0xec, 0xe6, 0x2e, 0xdd, 0xbd, 0x6d, 0xfd, 0xb3, 0xd7,
  0xb4, 0x5b, 0xc1, 0xdc, 0xe8, 0x51, 0xd0, 0x4f, 0x31, 0x89, 0x31, 0xf6,
  0xda, 0xe3, 0xef, 0xc8, 0x97, 0xba, 0xb9, 0xa1, 0xcf, 0xbd, 0x35, 0x25,
  0xf6, 0x7f, 0x8d, 0xfa, 0x46, 0x45, 0xce, 0x79, 0x83, 0xde, 0x6c, 0xa2,
  0xdb, 0x0e, 0x11, 0xe8, 0x1a, 0x76, 0x70, 0x1d, 0xbc, 0x9f, 0xfd, 0xe3,
  0x39, 0x46, 0xf3, 0xaa, 0xec, 0x3c, 0x9c, 0x64, 0x61, 0x85, 0xda, 0xe7,
  0x39, 0xdc, 0x41, 0x9e, 0xae, 0x13, 0x7f, 0x0f, 0xb6, 0xde, 0x45, 0xac,
  0xea, 0xbe, 0x17, 0x01, 0x11, 0xf1, 0xd8, 0x7f, 0x45, 0x4b, 0xa8, 0x32,
  0xc0, 0xf0, 0x59, 0x02, 0xa2, 0xca, 0x9d, 0xc2, 0x3f, 0xc3, 0x33, 0xf4,
  0xb3, 0x27, 0x97, 0x73, 0xe3, 0x19, 0x6a, 0xc8, 0x56, 0x6a, 0xcb, 0x16,
  0x3e, 0x16, 0xbb, 0xa4, 0xa7, 0xa3, 0xbb, 0x4f, 0x47, 0xd8, 0x10, 0x8b,
  0xee, 0x7f, 0x7c, 0x47, 0x3c, 0xf2, 0xa9, 0xb7, 0x19, 0xf5, 0xe8, 0xc5,
  0xea, 0xa6, 0xfa, 0xdb, 0xcc, 0xa6, 0x5d, 0x9b, 0xe6, 0xd9, 0x4d, 0x18,
  0x11, 0x8f, 0x7f, 0x07, 0x36, 0x2e, 0x0b, 0x8b, 0x36, 0x89, 0x23, 0xce,
  0xe7, 0xf5, 0x65, 0x8e, 0x05, 0x10, 0x3a, 0x4e, 0xda, 0xb3, 0xda, 0xdf,
  0xe7, 0xca, 0x60, 0x95, 0xa9, 0x81, 0xc9, 0x13, 0x1b, 0x70, 0x50, 0xcb,
  0x43, 0xe9, 0x68, 0x5d, 0x69, 0x28, 0x94, 0x12, 0x7d, 0x8f, 0xed, 0x0b,
  0xf7, 0xbc, 0x67, 0x32, 0x81, 0xd2, 0x19, 0x95, 0x43, 0xba, 0xa4, 0x5f,
  0x28, 0xb8, 0x63, 0xb6, 0x1d, 0x06, 0xad, 0x5b, 0xf9, 0xe0, 0x27, 0xb4,
  0x2b, 0x53, 0xc6, 0x1e, 0x36, 0xbc, 0x24, 0xfb, 0xd9, 0x23, 0xdc, 0x29,
  0x28, 0x1f, 0xc2, 0xad, 0xcd, 0xf0, 0x23, 0x7f, 0x12, 0xd7, 0x11, 0x56,
  0x13, 0x03, 0x48, 0xf4, 0xc5, 0x56, 0x0d, 0xef, 0x4d, 0xf6, 0x09, 0xae,
  0x07, 0xb1, 0x40, 0x11, 0x99, 0x75, 0x61, 0x4f, 0xef, 0xab, 0x1e, 0xa0,
  0xe5, 0x2e, 0x0c, 0x0a, 0xa2, 0x64, 0x35, 0x21, 0x7f, 0xb5, 0xb0, 0x0a,
  0x40, 0x17, 0x5c, 0x60, 0xbb, 0x14, 0xd9, 0xba, 0x5f, 0xba, 0xf5, 0x4a,
  0x26, 0x1b, 0x7f, 0x92, 0xe3, 0x57, 0xd2, 0xf5, 0x1a, 0xb9, 0x0f, 0x57,
  0x25, 0x13, 0xb4, 0x8d, 0x63, 0xd6, 0xda, 0x5c, 0xc0, 0x8f, 0xad, 0xd7,
  0x3d, 0x2d, 0x3a, 0xae, 0x81, 0xd3, 0x90, 0xc8, 0x73, 0x02, 0xab, 0x2e,
  0x04, 0xf9, 0xa1, 0x9c, 0x22, 0xb9, 0x5d, 0x06, 0xfe, 0x59, 0x58, 0xbf,
  0x08, 0x1f, 0xc0, 0x17, 0xc4, 0x99, 0x4a, 0x03, 0xe1, 0xb7, 0x3d, 0xb2,
  0xbd, 0x10, 0xf8, 0xf0, 0x93, 0xe9, 0xb4, 0xb9, 0x99, 0x31, 0xd5, 0x53,
  0x61, 0xee, 0xc0, 0x97, 0xea, 0x69, 0x26, 0x7f, 0xff, 0x2a, 0xc3, 0xb5,
  0x19, 0xce, 0x69, 0x5f, 0xd6, 0x94, 0x91, 0x2d, 0xcc, 0xf3, 0x34, 0xdc,
  0x65, 0xd3, 0x6e, 0xb3, 0x62, 0xb2, 0x42, 0xe8, 0x19, 0xe2, 0xe5, 0xf9,
  0x81, 0xc6, 0x24, 0x55, 0xc1, 0x03, 0xe9, 0x22, 0x4e, 0x39, 0x23, 0x25,
  0x27, 0xc8, 0x1e, 0x91, 0xad, 0xf9, 0x62, 0xc1, 0xcd, 0xc2, 0x42, 0x30,
  0x3c, 0x81, 0x26, 0x8a, 0x35, 0xb1, 0xc8, 0xe5, 0xec, 0xd1, 0x32, 0x38,
  0x46, 0xb8, 0xee, 0x54, 0x7a, 0x51, 0xd7, 0x41, 0x28, 0x22, 0x26, 0x51,
  0xd6, 0x33, 0x37, 0x94, 0x7f, 0xb4, 0xad, 0xb2, 0x90, 0xd3, 0x2b, 0x51,
  0x21, 0x2d, 0x60, 0xdd, 0xdb, 0x26, 0x51, 0x66, 0x59, 0xbd, 0x42, 0x29,
  0x84, 0x8b, 0x1d, 0x44, 0x28, 0x94, 0x8d, 0x97, 0x34, 0x9b, 0x5c, 0x81,
  0x41, 0x30, 0x7e, 0xa8, 0xc6, 0xb7, 0x3e, 0x5f, 0xb3, 0x49, 0x23, 0xc0,
  0xca, 0x3b, 0x2d, 0xed, 0x23, 0x01, 0xea, 0x08, 0x30, 0xa7, 0xd7, 0x33,
  0xea, 0x81, 0xcc, 0xfd, 0x02, 0xb8, 0xc2, 0xa8, 0xde, 0xff, 0x64, 0x63,
  0xa2, 0x4f, 0xfb, 0xe8, 0x22, 0x92, 0xc1, 0x9c, 0xf2, 0xaa, 0xdf, 0x49,
  0x49, 0xca, 0x3d, 0x17, 0x29, 0x29, 0x36, 0xf8, 0x9a, 0x3a, 0x37, 0xd2,
  0x96, 0xc0, 0x45, 0x65, 0xcc, 0x7f, 0x44, 0x78, 0xdc, 0xb4, 0xc1, 0xdc,
  0x44, 0x01, 0x36, 0x3a, 0x1e, 0x47, 0x7a, 0x4b, 0xe2, 0xa2, 0x2f, 0x5c,
  0xbb, 0xbf, 0x81, 0xfb, 0x3f, 0xd5, 0xc3, 0x43, 0xab, 0x1d, 0x52, 0x54,
  0xe1, 0xcb, 0x93, 0xb8, 0x15, 0xca, 0x30, 0x3f, 0x12, 0x72, 0x81, 0x08,
  0xd9, 0x46, 0xa1, 0x6c, 0xa4, 0xe4, 0x9a, 0x18, 0x62, 0x34, 0x96, 0x35,
  0x32, 0x57, 0xc3, 0x17, 0xe8, 0x6f, 0xcb, 0x5e, 0xc7, 0xad, 0xff, 0xd1,
  0x3d, 0x7a, 0x0d, 0x24, 0x7f, 0x45, 0x35, 0x62, 0xeb, 0xcd, 0x2a, 0x04,
  0x12, 0xd7, 0xea, 0xc1, 0x18, 0x4c, 0x40, 0x8d, 0x04, 0xd3, 0xf6, 0xe7,
  0x44, 0x08, 0x4e, 0xbf, 0x77, 0x0d, 0xad, 0xd2, 0xad, 0xda, 0x4a, 0x85,
  0x68, 0xd6, 0x34, 0xc8, 0x6e, 0x05, 0x58, 0x0b, 0xda, 0x30, 0x05, 0xfc,
  0x29, 0xbb, 0x1e, 0xba, 0x17, 0xc9, 0x59, 0xb0, 0x7f, 0xd1, 0x67, 0xcc,
  0xbd, 0x13, 0xba, 0x88, 0xc2, 0xc2, 0xf0, 0x9f, 0xd4, 0xa5, 0xa7, 0x38,
  0xd6, 0xb0, 0x7f, 0xd8, 0xb6, 0x18, 0xdb, 0xa8, 0x61, 0x6b, 0xd0, 0xd7,
  0x8e, 0x24, 0x58, 0x06, 0x42, 0xe7, 0xff, 0xff, 0x04, 0x00, 0x00, 0x00,
  0x80, 0x00, 0x00, 0x00, 0xc6, 0x52, 0x00, 0x00, 0xea, 0x86, 0xfe, 0xff,
  0x30, 0x51, 0x00, 0x00, 0xb3, 0xf5, 0x01, 0x00, 0x37, 0xd3, 0x00, 0x00,
  0xee, 0xde, 0xff, 0xff, 0xf3, 0xd1, 0xff, 0xff, 0xc0, 0x00, 0x00, 0x00,
  0xf0, 0xf1, 0x00, 0x00, 0xde, 0xe4, 0x00, 0x00, 0x33, 0xe8, 0xff, 0xff,
  0x34, 0x74, 0x00, 0x00, 0x3e, 0xe5, 0xff, 0xff, 0x15, 0xd2, 0x00, 0x00,
  0xef, 0xcd, 0xff, 0xff, 0xd6, 0x47, 0x00, 0x00, 0x60, 0x68, 0xff, 0xff,
  0xfa, 0x52, 0xff, 0xff, 0x20, 0x3f, 0x00, 0x00, 0x4a, 0xaf, 0x00, 0x00,
  0x74, 0xbe, 0x00, 0x00, 0x3a, 0x66, 0x00, 0x00, 0xdd, 0x93, 0x00, 0x00,
  0x88, 0xe5, 0xfe, 0xff, 0xfb, 0x14, 0x00, 0x00, 0x3d, 0xa5, 0x00, 0x00,
  0x7b, 0xea, 0xff, 0xff, 0x89, 0xf1, 0xff, 0xff, 0xfa, 0xdb, 0xff, 0xff,
  0x20, 0xfb, 0xfe, 0xff, 0xfa, 0x9b, 0xff, 0xff, 0x30, 0x6d, 0x01, 0x00,
  0xce, 0xe7, 0xff, 0xff, 0x04, 0x00, 0x00, 0x00, 0x00, 0x0c, 0x00, 0x00,
  0xef, 0xd5, 0xf6, 0xc2, 0xc6, 0xca, 0x30, 0x0d, 0xa4, 0x2f, 0xc4, 0xda,
  0xee, 0xc1, 0xef, 0xdf, 0xc2, 0x2d, 0x24, 0xc2, 0xbf, 0xe9, 0xe8, 0x4c,
  0xa5, 0x2c, 0x41, 0x3c, 0xdb, 0xea, 0xb5, 0x2e, 0xb4, 0xfc, 0x9c, 0xbe,
  0xd1, 0xc6, 0xc7, 0x1a, 0x09, 0x98, 0xe4, 0x11, 0xa8, 0xc0, 0x41, 0x14,
  0x65, 0xf6, 0x39, 0x47, 0xc5, 0xd0, 0xc5, 0x69, 0x26, 0x34, 0x2a, 0xe9,
  0xf7, 0xdc, 0xb1, 0x45, 0x5f, 0x0e, 0x36, 0x0f, 0xe5, 0xe7, 0xdb, 0x46,
  0x1a, 0xce, 0x58, 0x9f, 0x30, 0x81, 0xfa, 0x09, 0x15, 0xd8, 0x25, 0xd4,
  0x52, 0xad, 0xc3, 0x71, 0xad, 0x2f, 0xd9, 0x30, 0xa8, 0xf3, 0x1d, 0x19,
  0xc7, 0x28, 0x44, 0x4f, 0xb6, 0x34, 0x12, 0x09, 0xd3, 0x17, 0x43, 0xae,
  0x4c, 0x53, 0xa1, 0xa8, 0x06, 0xc3, 0x0d, 0xce, 0x2e, 0x44, 0xba, 0x34,
  0x02, 0x52, 0xc1, 0xe4, 0x11, 0x2d, 0x48, 0x0a, 0x9d, 0xa2, 0x03, 0x25,
  0x2c, 0xd9, 0x18, 0xc6, 0x41, 0xdc, 0x3b, 0x03, 0xa1, 0x1d, 0x60, 0x67,
  0x54, 0x1e, 0xa6, 0xcf, 0x10, 0x16, 0x27, 0xc6, 0x2b, 0xc1, 0x06, 0x00,
  0x26, 0x29, 0xf8, 0xa6, 0x1a, 0x12, 0xc3, 0x3c, 0xb1, 0x2c, 0xee, 0x81,
  0xe1, 0x4b, 0xd3, 0xc8, 0x26, 0x19, 0xf5, 0xe7, 0xbc, 0xe8, 0xf8, 0xa6,
  0xa4, 0x0d, 0x5a, 0x60, 0x49, 0x6a, 0xb7, 0xe8, 0x76, 0x17, 0x02, 0xac,
  0x07, 0xf2, 0xee, 0x9c, 0xbc, 0xc0, 0xe0, 0xb8, 0x48, 0xbd, 0xca, 0xf3,
  0x9b, 0xdb, 0x69, 0xb1, 0xf4, 0xc7, 0x32, 0xf2, 0x46, 0xfa, 0xf4, 0x05,
  0xfd, 0xb4, 0xb0, 0x42, 0xe6, 0x0b, 0xa2, 0x2b, 0xe9, 0x1f, 0x4e, 0x9a,
  0xcb, 0xaf, 0x7f, 0x2a, 0x33, 0x34, 0x4f, 0x1e, 0x15, 0x5d, 0x5e, 0x26,
  0x01, 0xd5, 0x7a, 0x05, 0x07, 0xd2, 0x92, 0xe5, 0x53, 0x11, 0xb9, 0xb6,
  0x89, 0xe9, 0x4c, 0x07, 0x10, 0x53, 0x5c, 0x9e, 0xec, 0xd7, 0xef, 0xf8,
  0x4f, 0x3a, 0x38, 0xd0, 0x1e, 0xd8, 0x0f, 0x02, 0x3e, 0x09, 0xef, 0xd7,
  0x97, 0x0f, 0xdc, 0x56, 0x2c, 0x44, 0x66, 0x43, 0xf1, 0x28, 0x5a, 0x18,
  0x9d, 0xa2, 0x40, 0x40, 0x60, 0x43, 0x09, 0x22, 0xbf, 0x9a, 0x13, 0xea,
  0xe0, 0xfa, 0xf2, 0xa4, 0x84, 0xfb, 0xac, 0xee, 0xd8, 0x04, 0xbe, 0x14,
  0x0f, 0x05, 0xfe, 0x24, 0x4b, 0xa0, 0x0c, 0x96, 0xcf, 0x8d, 0xaa, 0x7e,
  0xd8, 0x8d, 0x29, 0x14, 0x47, 0x0c, 0x4d, 0x6e, 0x11, 0xb1, 0x1e, 0x43,
  0x19, 0x5e, 0x23, 0x59, 0xc0, 0xf0, 0x14, 0x1c, 0xf3, 0xcc, 0xdb, 0x9b,
  0xbd, 0x47, 0x65, 0x2f, 0xda, 0x2b, 0x2b, 0x58, 0x46, 0xa4, 0xa9, 0x2d,
  0x55, 0x13, 0x02, 0xe2, 0xb4, 0x05, 0xb9, 0x70, 0xa6, 0x48, 0x1b, 0xb5,
  0x04, 0xc5, 0x81, 0xe0, 0x3b, 0x63, 0xb1, 0x14, 0xde, 0x43, 0xd0, 0x31,
  0x70, 0x42, 0x21, 0xe7, 0xec, 0x0d, 0x44, 0x17, 0xee, 0xf5, 0xea, 0xf3,
  0xf7, 0xf6, 0xcb, 0x46, 0x35, 0xe6, 0x58, 0x58, 0x42, 0x1e, 0xec, 0xa7,
  0x97, 0x81, 0x19, 0x14, 0xa4, 0xed, 0x5b, 0x59, 0x03, 0x4a, 0x92, 0x94,
  0xaf, 0x53, 0x01, 0xca, 0xb2, 0x94, 0xe4, 0xdd, 0xb9, 0x83, 0xf7, 0x0b,
  0xb7, 0xdb, 0x1f, 0xaf, 0x3b, 0xba, 0xaf, 0x2a, 0xc2, 0x1a, 0xab, 0x4e,
  0x21, 0xdc, 0xd8, 0x20, 0x3d, 0x8f, 0x42, 0x15, 0xf0, 0xe7, 0xd1, 0xcc,
  0xdc, 0xb3, 0xc4, 0x08, 0xcf, 0xc8, 0xed, 0xcb, 0xea, 0xde, 0x09, 0x1d,
  0xb4, 0xfc, 0x98, 0x22, 0xe8, 0x4f, 0xf6, 0xbe, 0x0c, 0xb4, 0x21, 0x16,
  0x04, 0x26, 0xed, 0x32, 0xee, 0x39, 0xd2, 0xa5, 0xbc, 0x4e, 0x1b, 0xb3,
  0x33, 0x4a, 0x0c, 0x2c, 0x47, 0x72, 0xf0, 0xe6, 0xd1, 0xc6, 0xdc, 0x4d,
  0x33, 0x13, 0x08, 0x1a, 0xba, 0xc9, 0x73, 0xef, 0x51, 0xed, 0xe8, 0xc6,
  0xe6, 0x1d, 0xb8, 0xad, 0x32, 0x59, 0xcc, 0x48, 0x39, 0x27, 0x49, 0x51,
  0x15, 0x0f, 0x0c, 0x5c, 0xe3, 0x1b, 0xfb, 0x1d, 0x14, 0xa0, 0xf8, 0x4e,
  0x8d, 0x25, 0xd7, 0x14, 0x97, 0x23, 0x07, 0xc9, 0x34, 0x7f, 0xbd, 0x9d,
  0x56, 0xfe, 0x23, 0x29, 0xe4, 0x39, 0x55, 0xd5, 0x2f, 0xd3, 0x00, 0x4c,
  0xfe, 0xf0, 0xc2, 0x5c, 0x30, 0xdf, 0x05, 0x0d, 0xa6, 0x2a, 0xe1, 0x35,
  0xf3, 0xfb, 0xf2, 0x1e, 0xd8, 0xf3, 0xf9, 0x4a, 0x12, 0xd6, 0xc0, 0x2e,
  0x0e, 0x12, 0x1a, 0xd1, 0x02, 0x0e, 0x16, 0xe9, 0x27, 0xca, 0xc4, 0x05,
  0x3d, 0x21, 0x56, 0x81, 0x0a, 0xae, 0x4d, 0xf3, 0xf0, 0xe0, 0xdf, 0x1c,
  0xf8, 0x0a, 0xfe, 0xdb, 0xc7, 0x00, 0x30, 0xbb, 0x4f, 0xe3, 0x1c, 0x59,
  0x04, 0xc0, 0xfe, 0x33, 0x14, 0xf1, 0xd1, 0x3a, 0x0d, 0xfc, 0xdf, 0xf7,
  0xb7, 0x43, 0x06, 0x3e, 0x05, 0xd5, 0xe9, 0x18, 0xc0, 0x55, 0x12, 0x40,
  0x1a, 0xf2, 0xb3, 0xff, 0x03, 0x01, 0xd7, 0xcd, 0x52, 0xe1, 0x29, 0xc8,
  0x24, 0x27, 0xad, 0x31, 0xbd, 0xe8, 0x15, 0xf6, 0x12, 0xca, 0x03, 0x28,
  0xa2, 0x4b, 0xb6, 0x26, 0x1c, 0x0e, 0x4e, 0x45, 0x94, 0xc3, 0xbd, 0x23,
  0xbf, 0xdd, 0x52, 0x52, 0xe9, 0xc2, 0x4c, 0x21, 0xc8, 0xb1, 0xcd, 0xe8,
  0x0d, 0x53, 0xed, 0x4f, 0xfd, 0x62, 0x25, 0xbb, 0x08, 0x0f, 0x13, 0x45,
  0xa1, 0xef, 0x53, 0xb5, 0x1f, 0x44, 0xc6, 0xf5, 0x3b, 0x2e, 0xfc, 0x45,
  0x2d, 0x19, 0xda, 0x81, 0x37, 0x0a, 0x48, 0x21, 0xec, 0x26, 0x3f, 0x31,
  0x13, 0xd2, 0xf4, 0x41, 0xb9, 0xe7, 0xbf, 0x55, 0x47, 0xf1, 0x1b, 0x19,
  0xbf, 0x73, 0xfe, 0xed, 0x72, 0x32, 0x0e, 0x51, 0x49, 0xec, 0x12, 0x8b,
  0x36, 0xd9, 0x2d, 0x2e, 0xcf, 0x49, 0x53, 0x77, 0x64, 0x5b, 0x5e, 0x6d,
  0xc6, 0xcf, 0x21, 0x17, 0xbd, 0x15, 0xe5, 0xd9, 0x08, 0x42, 0x00, 0x36,
  0xf5, 0x00, 0x48, 0xfc, 0x55, 0xca, 0xf2, 0xda, 0xd2, 0x25, 0x21, 0x2f,
  0xff, 0xdb, 0x69, 0x2a, 0x81, 0x08, 0x4c, 0x4d, 0xd0, 0x9d, 0x4c, 0x0a,
  0x0c, 0x0c, 0xb5, 0x9c, 0xe5, 0x89, 0x96, 0xee, 0xc2, 0xac, 0x06, 0xe0,
  0xc8, 0xd9, 0x3f, 0xc1, 0x42, 0x26, 0xab, 0x16, 0xb3, 0xd7, 0xde, 0x2e,
  0x07, 0x44, 0xc0, 0x17, 0x9a, 0xd6, 0x3a, 0xba, 0x5f, 0xba, 0x4a, 0x00,
  0x19, 0x95, 0xa1, 0xc7, 0x55, 0x8c, 0x06, 0x1f, 0xff, 0x56, 0xd3, 0x4e,
  0x1d, 0xd4, 0xc1, 0xeb, 0x3a, 0xf9, 0xe3, 0xc4, 0x2e, 0xaa, 0x33, 0x49,
  0xb7, 0x48, 0x25, 0x5c, 0x5b, 0x74, 0xd2, 0x3c, 0xba, 0x45, 0xec, 0xd6,
  0x98, 0xb2, 0x3e, 0x9c, 0x4d, 0x03, 0xa2, 0x9f, 0x0b, 0xaf, 0xdd, 0xff,
  0x39, 0xe4, 0xa7, 0x9a, 0x3e, 0x12, 0x81, 0xd2, 0x96, 0x21, 0x52, 0x21,
  0x5a, 0x21, 0x2b, 0x15, 0xc6, 0x44, 0xd9, 0x4b, 0xfd, 0xfd, 0xaa, 0xb4,
  0x2a, 0xb8, 0xce, 0x98, 0xe8, 0xa7, 0xd8, 0x1e, 0x57, 0xa8, 0xbb, 0x40,
  0xaf, 0x07, 0x9d, 0xc0, 0x93, 0xae, 0x8c, 0x10, 0x29, 0x03, 0xb5, 0xf1,
  0x54, 0xf2, 0x38, 0x54, 0xdd, 0xc7, 0x2d, 0xef, 0x99, 0xfb, 0x2f, 0x14,
  0x58, 0x9e, 0x30, 0xc4, 0xae, 0x24, 0x59, 0xf0, 0x21, 0x49, 0x6b, 0x07,
  0xce, 0x1e, 0x3b, 0x05, 0xc2, 0x6f, 0x69, 0xba, 0x92, 0x63, 0x40, 0xc3,
  0xe0, 0x34, 0x81, 0x60, 0xe2, 0xcc, 0xff, 0xe3, 0xc9, 0x8e, 0xc9, 0x00,
  0x0d, 0xd9, 0x63, 0xdb, 0xff, 0x4e, 0xbd, 0xfc, 0x0f, 0x9d, 0x06, 0xc8,
  0xa4, 0xe0, 0x13, 0xe5, 0xe0, 0x0c, 0x0a, 0x8c, 0x00, 0x58, 0xb3, 0xd1,
  0xa2, 0xeb, 0x14, 0x18, 0x9b, 0x51, 0x10, 0x63, 0xec, 0x20, 0x57, 0xfe,
  0xba, 0x1f, 0xf4, 0x0c, 0xc9, 0x14, 0x02, 0xe4, 0xb5, 0x33, 0xd6, 0x3f,
  0x22, 0x04, 0x15, 0xd9, 0xe7, 0xda, 0xbd, 0x15, 0x1c, 0x92, 0xfb, 0xce,
  0xd7, 0xb3, 0x27, 0xd1, 0x93, 0x1a, 0xba, 0xc4, 0x3c, 0xc4, 0x3c, 0x70,
  0x18, 0x34, 0xcf, 0x3f, 0xff, 0xcd, 0x55, 0x3a, 0x9e, 0x1c, 0x33, 0x58,
  0x2b, 0xb4, 0x2d, 0x71, 0x32, 0x9f, 0xfc, 0x54, 0x0b, 0x04, 0x51, 0x3e,
  0x18, 0x62, 0x7f, 0x3a, 0xc5, 0xfc, 0xde, 0xd4, 0x09, 0x3f, 0x02, 0xce,
  0xfa, 0x38, 0xc2, 0xc4, 0x6b, 0x34, 0x57, 0xfc, 0x71, 0x24, 0xf5, 0xd8,
  0x07, 0x55, 0xeb, 0x0b, 0xf3, 0xf6, 0x13, 0x0b, 0x18, 0x1b, 0xb9, 0x4d,
  0x64, 0x2e, 0xb5, 0x56, 0xf5, 0xbc, 0x29, 0x9c, 0x28, 0xf3, 0x50, 0x25,
  0x17, 0x04, 0xc2, 0xef, 0xcf, 0xc2, 0x1e, 0xd6, 0x04, 0xf6, 0x16, 0x6f,
  0x42, 0x3d, 0x5a, 0x1c, 0x6f, 0xe3, 0x6d, 0x0a, 0xda, 0xa1, 0x43, 0x57,
  0x24, 0x9d, 0xf4, 0xd3, 0x3b, 0xd3, 0x37, 0xce, 0x41, 0xea, 0x28, 0x29,
  0xd7, 0x98, 0xd1, 0x91, 0xf2, 0xa3, 0x05, 0xc0, 0xbf, 0x49, 0xf6, 0x32,
  0xe5, 0x25, 0xee, 0xe1, 0x20, 0xbb, 0x0f, 0x36, 0x4c, 0x35, 0x91, 0x45,
  0x36, 0xcd, 0x0f, 0xa2, 0x28, 0xa3, 0xcd, 0xd6, 0xea, 0xfc, 0x27, 0xae,
  0xe4, 0x03, 0x4f, 0xa8, 0x12, 0x25, 0x0e, 0xa1, 0xb6, 0x30, 0xf0, 0xe5,
  0x9d, 0xe6, 0xb3, 0xaf, 0xff, 0xfb, 0xdf, 0x23, 0xba, 0xcc, 0x3a, 0xe4,
  0xff, 0xb3, 0x21, 0x23, 0xcc, 0x08, 0x81, 0xc8, 0x20, 0xf5, 0x2b, 0xdb,
  0xf5, 0xe8, 0xe1, 0x1c, 0xf5, 0xff, 0xca, 0x3e, 0xeb, 0xa9, 0x4e, 0x96,
  0x06, 0xc4, 0xc2, 0xf8, 0xd8, 0x14, 0x16, 0x0a, 0x17, 0xaa, 0xff, 0x04,
  0xa3, 0xc4, 0x81, 0xd8, 0xe6, 0xed, 0x12, 0xde, 0xdc, 0xb2, 0xb2, 0x69,
  0xfa, 0xb1, 0x08, 0xea, 0x3b, 0x14, 0x0d, 0x1a, 0xfd, 0x32, 0xd0, 0xb9,
  0xaf, 0xe0, 0xd4, 0x5e, 0xbe, 0x40, 0x3f, 0x12, 0xbe, 0xc4, 0x04, 0x4b,
  0x46, 0xb6, 0x3a, 0xb0, 0x05, 0x03, 0xb7, 0x3a, 0x53, 0xba, 0xb0, 0x74,
  0x08, 0xc5, 0x29, 0x3f, 0x3d, 0xb6, 0x58, 0xe1, 0x11, 0xdd, 0xe7, 0xe9,
  0xd9, 0x63, 0x50, 0x98, 0x2a, 0xef, 0x49, 0xe7, 0x53, 0xd0, 0x2e, 0xbb,
  0xde, 0xc4, 0xf1, 0x0e, 0x42, 0xb5, 0xf5, 0x65, 0xe6, 0xe4, 0xe5, 0xc5,
  0x13, 0xe6, 0xe1, 0x14, 0xbf, 0xf7, 0x05, 0x1b, 0xeb, 0x01, 0xf4, 0x41,
  0xd1, 0x37, 0xf4, 0xd1, 0xfc, 0xa0, 0xce, 0x9c, 0x26, 0xda, 0xcb, 0xd7,
  0xcd, 0x21, 0xb2, 0x38, 0xb4, 0x0a, 0x1b, 0xda, 0xd7, 0x23, 0x16, 0x0f,
  0xb5, 0x02, 0x05, 0x08, 0x9d, 0x72, 0x5d, 0x3e, 0x13, 0xe6, 0x1d, 0xb9,
  0x32, 0x05, 0x0a, 0x99, 0x0b, 0xd9, 0x16, 0x37, 0x16, 0x53, 0x0f, 0xcb,
  0xba, 0x14, 0xe9, 0xeb, 0xdc, 0xe9, 0x4b, 0x05, 0xb3, 0x1a, 0x22, 0x1e,
  0xe3, 0x7f, 0xe6, 0xf1, 0x01, 0x37, 0xfd, 0xe0, 0x4a, 0xb7, 0xd8, 0xb8,
  0xb7, 0xf4, 0x14, 0xc1, 0xe0, 0xe2, 0x9f, 0x15, 0xf3, 0x21, 0xfa, 0x8d,
  0xbb, 0x68, 0x5b, 0x0a, 0x1c, 0x31, 0x0d, 0x23, 0x33, 0xa4, 0x52, 0xb7,
  0x40, 0x9b, 0xa2, 0x39, 0xd9, 0xdb, 0xc8, 0x06, 0x01, 0xe1, 0x2a, 0xe6,
  0x91, 0xec, 0xaf, 0x21, 0xe7, 0x01, 0xd6, 0x4c, 0x54, 0x37, 0xe1, 0x27,
  0xc4, 0xe0, 0x70, 0xd4, 0x27, 0x40, 0x54, 0x4c, 0xb0, 0xc4, 0xb2, 0x10,
  0xdd, 0xef, 0x28, 0xd8, 0xcc, 0x23, 0xe6, 0xcd, 0xa7, 0xf1, 0x52, 0x31,
  0x29, 0x63, 0x6e, 0xf8, 0xe0, 0x2c, 0xf0, 0x91, 0x08, 0xfa, 0x53, 0xc0,
  0x26, 0xec, 0x16, 0xc6, 0xe5, 0x10, 0x58, 0xb7, 0x4d, 0xc9, 0x36, 0x52,
  0xd4, 0x19, 0x4a, 0xcf, 0x81, 0xcd, 0xde, 0xb2, 0x4f, 0xdf, 0x18, 0xdc,
  0x4d, 0x96, 0x4e, 0x52, 0x50, 0x47, 0x9f, 0x48, 0x52, 0xb4, 0x3e, 0x39,
  0xbc, 0x61, 0x07, 0x40, 0xf8, 0xf0, 0x7f, 0xf2, 0x45, 0x0c, 0x34, 0x59,
  0xbb, 0x5b, 0x01, 0xf6, 0x34, 0xf5, 0xf8, 0xa3, 0x52, 0xd4, 0xf9, 0x1d,
  0x43, 0x03, 0xf0, 0x58, 0xc6, 0xf7, 0xf8, 0x36, 0xfe, 0x14, 0x37, 0x2c,
  0x88, 0x19, 0xcd, 0x0d, 0xce, 0x4d, 0x13, 0x6d, 0xe1, 0xeb, 0xe2, 0x67,
  0x98, 0x40, 0xa9, 0x8f, 0x18, 0xb9, 0x15, 0xbb, 0xbf, 0xfa, 0x9e, 0xed,
  0x03, 0x24, 0xce, 0x02, 0xf5, 0x19, 0xfa, 0xb0, 0x8f, 0x0d, 0xd1, 0x0c,
  0xba, 0x17, 0x7e, 0x05, 0x3e, 0x6c, 0xf9, 0xed, 0xbb, 0x3d, 0x22, 0x01,
  0xb4, 0x15, 0x5b, 0x70, 0x65, 0x70, 0x67, 0x25, 0x49, 0x0d, 0xb9, 0xb1,
  0x9a, 0xe8, 0xb8, 0xfb, 0x98, 0xdc, 0x53, 0xc3, 0xcc, 0x0f, 0x7f, 0xd2,
  0x2a, 0x9e, 0x92, 0x13, 0x2d, 0x8e, 0x75, 0x78, 0x5d, 0x25, 0xdc, 0xc7,
  0x07, 0xd5, 0x33, 0xa5, 0xdc, 0x19, 0x9c, 0x06, 0xd1, 0x3c, 0x5d, 0x24,
  0xc5, 0xe9, 0xa9, 0xf6, 0x71, 0xa6, 0x54, 0x7a, 0xb5, 0x6e, 0x10, 0x3a,
  0xcc, 0x02, 0x1d, 0x24, 0xc9, 0x84, 0x0f, 0xe0, 0xea, 0xec, 0xd1, 0xcb,
  0xcf, 0xaf, 0x17, 0xee, 0x8b, 0xc5, 0x04, 0x79, 0x9e, 0x8d, 0x72, 0x16,
  0xac, 0x1c, 0x15, 0x0b, 0xbc, 0x0c, 0xd9, 0xd5, 0x29, 0x6b, 0x4c, 0x3d,
  0x19, 0xb2, 0x1e, 0xeb, 0xce, 0xb5, 0x2b, 0xb4, 0x2a, 0x37, 0x4c, 0x33,
  0x5d, 0xe8, 0xad, 0xbf, 0xa3, 0x02, 0xdd, 0x30, 0xdb, 0xc4, 0xb3, 0xed,
  0xdf, 0xf4, 0x4b, 0x7a, 0xe7, 0xe5, 0x05, 0x0e, 0x5c, 0xe1, 0x9b, 0x2d,
  0x38, 0x68, 0xfe, 0xe1, 0x2a, 0xa7, 0x01, 0x36, 0x22, 0x5f, 0x4b, 0xb5,
  0xbd, 0x81, 0xfc, 0xd8, 0xa9, 0x14, 0x57, 0xe6, 0xb6, 0x64, 0x1e, 0x6d,
  0x9c, 0x4e, 0xca, 0xc9, 0x6f, 0xbf, 0x30, 0x4b, 0x44, 0x65, 0x33, 0x46,
  0xa1, 0x3e, 0x4f, 0xda, 0x4b, 0x72, 0xc0, 0x1b, 0xac, 0xc9, 0xd2, 0xc4,
  0x2b, 0x4a, 0xdb, 0xf3, 0x34, 0x49, 0x1a, 0xad, 0x00, 0x10, 0xc7, 0xcd,
  0x39, 0x47, 0x0c, 0xf8, 0x57, 0xca, 0xcf, 0xbe, 0x54, 0x22, 0x5a, 0x4b,
  0xc6, 0x29, 0xad, 0xbb, 0xc2, 0xcc, 0x2d, 0x22, 0x18, 0xfd, 0xa7, 0x71,
  0xbc, 0xfb, 0x0d, 0x4f, 0xdf, 0x1b, 0xa9, 0x5c, 0xbe, 0x24, 0x11, 0x21,
  0xb3, 0xb2, 0xfd, 0xb4, 0xf1, 0x25, 0x3a, 0xa3, 0xea, 0xfe, 0xe6, 0x7f,
  0x3b, 0x2c, 0x6e, 0xe3, 0x10, 0xc8, 0xb1, 0x1f, 0xff, 0xee, 0xfe, 0x5e,
  0x04, 0xec, 0x20, 0xdc, 0xc7, 0xcc, 0x97, 0x01, 0x2c, 0x3d, 0x37, 0x2d,
  0x37, 0xbc, 0x30, 0xfb, 0x12, 0x95, 0xc9, 0x24, 0x3c, 0xbd, 0x53, 0x12,
  0xe4, 0xb7, 0xc7, 0xaf, 0xc9, 0xf4, 0x3a, 0x05, 0xb7, 0xd0, 0x26, 0x0b,
  0x1f, 0x39, 0x36, 0x5e, 0xc1, 0x5a, 0xf7, 0x50, 0x66, 0xb6, 0x9a, 0x0b,
  0x3c, 0xb2, 0xc8, 0xa9, 0xe1, 0x62, 0xd2, 0xcc, 0xe3, 0xf3, 0x54, 0x17,
  0xd2, 0xd1, 0xa6, 0xe4, 0xb6, 0x2a, 0x41, 0xe0, 0xcd, 0xb9, 0x29, 0x55,
  0xbf, 0x5f, 0x08, 0xbd, 0x24, 0xc5, 0x6d, 0xfd, 0x6f, 0x4f, 0x67, 0x0a,
  0xbf, 0xef, 0x81, 0x55, 0xdb, 0x22, 0x3a, 0xef, 0x6c, 0x07, 0x11, 0x21,
  0x68, 0x6f, 0xb5, 0xea, 0xd4, 0x63, 0x20, 0x59, 0xdc, 0x66, 0xca, 0xd7,
  0xd6, 0x5c, 0x7e, 0x59, 0x43, 0x53, 0xb3, 0x12, 0x5a, 0xc8, 0xa1, 0xb8,
  0xb1, 0xff, 0x61, 0x39, 0x4f, 0xbb, 0x37, 0xa0, 0xa9, 0x7a, 0x37, 0x60,
  0xdb, 0x2b, 0x1b, 0x4f, 0xae, 0xcb, 0x20, 0xc4, 0x32, 0xf1, 0xdb, 0xf9,
  0xc0, 0x16, 0x3b, 0x17, 0x0c, 0x31, 0xbe, 0xeb, 0x4b, 0x27, 0xe2, 0x12,
  0xfe, 0xc1, 0x30, 0x0e, 0xca, 0x05, 0x94, 0x24, 0xa9, 0xfc, 0x98, 0x3d,
  0xbc, 0x13, 0xf1, 0x3b, 0xd7, 0xe3, 0xd5, 0xd0, 0x47, 0xc3, 0x5a, 0x1a,
  0xd1, 0x1a, 0x19, 0x30, 0x1f, 0xdf, 0xa5, 0x01, 0x0c, 0xda, 0x4e, 0x3b,
  0x29, 0xab, 0x09, 0xa9, 0x9e, 0x54, 0xfe, 0x20, 0x32, 0xeb, 0xa3, 0x06,
  0x4e, 0x16, 0xed, 0x21, 0x48, 0x81, 0x52, 0x51, 0xa1, 0x45, 0xdd, 0xa3,
  0xbb, 0x06, 0xed, 0xe3, 0xe4, 0xfb, 0xf9, 0xd1, 0x2b, 0x26, 0xe6, 0xe6,
  0x42, 0x4d, 0xf6, 0x39, 0xa0, 0xb8, 0x1c, 0xf3, 0x11, 0x47, 0xea, 0xec,
  0xb5, 0xce, 0x77, 0xa5, 0x9f, 0x4a, 0x59, 0x1b, 0xbe, 0xee, 0x5e, 0xbb,
  0x1b, 0x06, 0x23, 0x27, 0x0f, 0x4a, 0xee, 0xcc, 0x47, 0xd0, 0x12, 0xd3,
  0x41, 0xeb, 0x01, 0xce, 0x6a, 0x69, 0xbf, 0x37, 0xf5, 0x58, 0xbf, 0xfe,
  0x4e, 0xd2, 0xd1, 0x98, 0x5a, 0x37, 0x1c, 0x11, 0xab, 0xd5, 0xd0, 0x2f,
  0xf7, 0xb2, 0x3c, 0x7d, 0xf3, 0xc1, 0xba, 0xe5, 0xda, 0xe0, 0x54, 0xd2,
  0x28, 0xbb, 0x0e, 0x32, 0x9c, 0x33, 0x1e, 0x20, 0xda, 0x0a, 0xe6, 0x2b,
  0xac, 0xd5, 0x3d, 0xec, 0x27, 0x81, 0x5c, 0xfb, 0xc5, 0x3c, 0x53, 0x33,
  0xb5, 0x59, 0x60, 0xcd, 0xda, 0x66, 0xc1, 0x3d, 0xed, 0x67, 0xee, 0x56,
  0x3e, 0xce, 0xf8, 0x20, 0x4f, 0xc1, 0xb7, 0xbf, 0x03, 0x97, 0x18, 0x7b,
  0xcc, 0x98, 0xd2, 0xf9, 0xcc, 0x41, 0xc7, 0x3e, 0x09, 0x83, 0x7b, 0x53,
  0xdf, 0x27, 0xd3, 0x26, 0xa3, 0xce, 0xe3, 0xf2, 0x4c, 0x94, 0x22, 0xa9,
  0x08, 0xe8, 0x4c, 0xcf, 0xca, 0xcb, 0xfa, 0xb5, 0xf5, 0xa6, 0x29, 0xfb,
  0x2d, 0x24, 0xc6, 0xf2, 0x18, 0x4e, 0x2b, 0x5a, 0x5b, 0x31, 0xb0, 0xad,
  0x94, 0x30, 0xff, 0x58, 0x9d, 0xda, 0x71, 0xb6, 0x1d, 0x20, 0x33, 0xdd,
  0x7f, 0xc2, 0xc0, 0x1d, 0xa7, 0x22, 0xbd, 0x40, 0x0e, 0x0e, 0x0b, 0x2c,
  0xe5, 0xd8, 0x16, 0xed, 0xef, 0xba, 0xdb, 0x1e, 0x37, 0xda, 0xde, 0x9c,
  0xe1, 0x1c, 0xb0, 0x18, 0xd4, 0xb5, 0x7f, 0x0c, 0xf1, 0xc6, 0x52, 0x42,
  0x4e, 0xcf, 0x29, 0x78, 0x39, 0x75, 0xcc, 0xb5, 0x5b, 0xea, 0xd0, 0x97,
  0x21, 0x4e, 0xef, 0xfd, 0x19, 0xbb, 0xb4, 0x65, 0xe1, 0x3f, 0x09, 0x41,
  0x2f, 0xc7, 0x29, 0xbf, 0xe3, 0x18, 0x51, 0x0f, 0x28, 0xba, 0x20, 0x55,
  0xd6, 0xb5, 0xe7, 0xfd, 0x0e, 0xc5, 0x0e, 0xcd, 0x52, 0x23, 0x2d, 0xc9,
  0xb1, 0xa0, 0x68, 0xa7, 0xeb, 0xe0, 0xb2, 0xe1, 0xd7, 0xc7, 0x45, 0x56,
  0x57, 0xb5, 0xc1, 0xce, 0x0e, 0xb7, 0xc2, 0xeb, 0x2b, 0xdb, 0x95, 0xf9,
  0x17, 0x08, 0x25, 0xaa, 0x32, 0x8b, 0xa6, 0x8f, 0x15, 0xed, 0x2d, 0x9d,
  0x5a, 0xdb, 0x6e, 0xc8, 0xd0, 0xe3, 0x50, 0x94, 0xe6, 0x15, 0xf6, 0xed,
  0x5b, 0xf2, 0x69, 0xdb, 0xf8, 0xcd, 0x57, 0x27, 0x12, 0x0f, 0x51, 0x1e,
  0x1e, 0xfd, 0x7f, 0xb0, 0xb6, 0x6c, 0x01, 0x28, 0x96, 0x7f, 0xa2, 0xf8,
  0x92, 0x28, 0xf8, 0x69, 0x9f, 0xd3, 0x07, 0x36, 0x90, 0xf9, 0x26, 0x54,
  0x24, 0x53, 0xab, 0x41, 0x20, 0xfc, 0xdc, 0xa7, 0x0d, 0xa9, 0xa5, 0xe9,
  0xe0, 0x6d, 0x5c, 0xab, 0x34, 0x2f, 0x45, 0x4b, 0x93, 0x6a, 0xae, 0xbe,
  0xab, 0xfe, 0xef, 0x5b, 0xa7, 0x39, 0xb1, 0x32, 0x8f, 0xcf, 0x70, 0x11,
  0x37, 0xc0, 0x18, 0xd6, 0xd8, 0x71, 0x4a, 0x41, 0x37, 0x9b, 0xca, 0x51,
  0xa2, 0x3d, 0xc3, 0x2d, 0xc1, 0xb0, 0x3d, 0xbc, 0x08, 0xfb, 0xb7, 0xf6,
  0x5b, 0x58, 0xdf, 0x52, 0x55, 0x4d, 0x47, 0xbc, 0xe9, 0x5e, 0xa7, 0x87,
  0x0d, 0xe0, 0x9e, 0xaa, 0x78, 0x98, 0xea, 0xc0, 0xb6, 0x07, 0x11, 0x32,
  0xb5, 0x25, 0x1b, 0xf9, 0x23, 0xd5, 0x31, 0xba, 0x53, 0x9c, 0x5e, 0xb3,
  0x94, 0xb4, 0x4c, 0x50, 0xc5, 0xd4, 0x4f, 0xf4, 0x97, 0x26, 0x2a, 0x0b,
  0x65, 0x8f, 0xd0, 0xa6, 0x7f, 0xed, 0x67, 0xf0, 0x50, 0xf0, 0xd8, 0x9b,
  0x25, 0xbf, 0xc8, 0x9a, 0x4c, 0xaa, 0x35, 0xb4, 0xa2, 0xdc, 0xd0, 0x75,
  0xc5, 0xdc, 0x35, 0x08, 0xd3, 0xdc, 0x45, 0xee, 0xfb, 0xa8, 0xff, 0xf2,
  0xad, 0xf6, 0xd0, 0x34, 0x2f, 0xe4, 0x37, 0x1d, 0xf7, 0x27, 0x4c, 0xda,
  0xde, 0xdc, 0xa3, 0x15, 0x3b, 0xc1, 0x06, 0xb4, 0x02, 0x2c, 0xa1, 0xef,
  0x6c, 0x61, 0xba, 0x69, 0xfc, 0xae, 0x54, 0xaa, 0x27, 0x29, 0xb6, 0x43,
  0xf5, 0x5f, 0x43, 0xa3, 0x39, 0x3c, 0xfa, 0x58, 0x87, 0x3e, 0xfe, 0x03,
  0x3c, 0x4d, 0xab, 0xfe, 0x81, 0x29, 0xe6, 0xf4, 0xae, 0xc2, 0xdc, 0x52,
  0xe4, 0x08, 0x13, 0x49, 0x36, 0xfa, 0xa5, 0xbc, 0x63, 0x4f, 0x1a, 0xe7,
  0xda, 0x24, 0x34, 0xfa, 0x57, 0xb4, 0xb8, 0xda, 0x99, 0xb8, 0xe5, 0xee,
  0xd2, 0x49, 0x6b, 0xd3, 0xa8, 0x5b, 0xd3, 0x48, 0xfc, 0xb7, 0x00, 0x14,
  0xfb, 0x42, 0x7b, 0x54, 0x81, 0x9b, 0xb3, 0xf7, 0xd6, 0xac, 0xa9, 0x3c,
  0xa9, 0x09, 0x15, 0x91, 0x46, 0x9c, 0x9a, 0x41, 0xdd, 0xf8, 0x3a, 0xfb,
  0x9e, 0x94, 0x9b, 0x53, 0x95, 0xb8, 0x3a, 0x3c, 0xef, 0x5c, 0x46, 0xf4,
  0x4f, 0x97, 0x1f, 0x42, 0xa9, 0x0d, 0x13, 0x34, 0xe9, 0xb4, 0x3d, 0x06,
  0x02, 0x61, 0x56, 0xac, 0x34, 0x00, 0xd7, 0x09, 0x03, 0xc1, 0xdb, 0xba,
  0x1e, 0xaf, 0xc9, 0xe6, 0xe6, 0xe6, 0xc6, 0x36, 0x4b, 0xd5, 0x1e, 0xf4,
  0x1b, 0x04, 0x12, 0x9a, 0x98, 0xa8, 0xc2, 0x23, 0x4d, 0xc3, 0x01, 0x4a,
  0x52, 0xb5, 0x4e, 0xca, 0xc2, 0x1c, 0xc9, 0x9f, 0x3e, 0x91, 0xad, 0x1f,
  0xe7, 0x2a, 0xc6, 0xef, 0xab, 0x19, 0x45, 0x26, 0xcd, 0x0b, 0x43, 0x30,
  0xed, 0x4a, 0xbe, 0xd0, 0x00, 0x48, 0xeb, 0xdd, 0x1c, 0xe3, 0xf0, 0xc5,
  0xba, 0x23, 0xb9, 0x15, 0xab, 0x23, 0xc3, 0x17, 0xd1, 0x4f, 0x20, 0xf4,
  0x4b, 0x3a, 0x3b, 0x4c, 0x31, 0xc9, 0xfb, 0xaa, 0xde, 0x00, 0x1a, 0x20,
  0x32, 0x01, 0x00, 0x8c, 0x46, 0x12, 0x4e, 0xf5, 0x2a, 0xf6, 0x48, 0x47,
  0xae, 0x81, 0x47, 0x14, 0xc4, 0x37, 0xcf, 0x0a, 0xdc, 0x17, 0x51, 0xe1,
  0x1d, 0x2e, 0x13, 0xf4, 0x36, 0x21, 0x08, 0x2d, 0x33, 0xf9, 0xb1, 0x88,
  0xa2, 0xe8, 0x32, 0xb2, 0x46, 0x2c, 0xec, 0x06, 0xa1, 0xf8, 0xe6, 0xca,
  0x1b, 0x44, 0x5c, 0x81, 0xd5, 0x1a, 0xd8, 0xc5, 0xba, 0x58, 0x28, 0x4c,
  0x6c, 0x4a, 0x45, 0xb6, 0xe8, 0xb9, 0x0e, 0x56, 0x61, 0x00, 0xba, 0x15,
  0xd0, 0x63, 0xc8, 0x25, 0xe1, 0x29, 0x86, 0xf2, 0x48, 0x12, 0xca, 0x98,
  0x09, 0x4c, 0xe8, 0xea, 0x22, 0x25, 0xbe, 0x45, 0x23, 0xd1, 0xd0, 0x59,
  0xf6, 0x16, 0xfc, 0x25, 0xd4, 0x48, 0x75, 0x76, 0xa6, 0xcc, 0x34, 0xcd,
  0xbd, 0x9d, 0xa7, 0xdf, 0x60, 0xfb, 0x62, 0x0f, 0x4a, 0xb6, 0xde, 0x56,
  0x14, 0xe3, 0xc6, 0x9b, 0x34, 0xb9, 0xc5, 0x21, 0x00, 0xa7, 0xe6, 0x4c,
  0xa0, 0x27, 0x8c, 0x38, 0x56, 0x28, 0x10, 0xa7, 0x3c, 0xdd, 0xd7, 0xf4,
  0x81, 0x02, 0xde, 0xb2, 0x3b, 0x00, 0x84, 0x3d, 0xc1, 0x0b, 0x0e, 0xe0,
  0x2b, 0x55, 0xde, 0xf7, 0x85, 0x34, 0xfa, 0x4c, 0xeb, 0xca, 0x3a, 0x19,
  0x04, 0xdc, 0xab, 0xb0, 0xcf, 0xde, 0xc9, 0x9f, 0xf5, 0x41, 0x45, 0x30,
  0x94, 0x19, 0x10, 0x15, 0x14, 0x7a, 0x2f, 0x45, 0x4c, 0x27, 0x7c, 0x02,
  0xfd, 0x1a, 0x38, 0x14, 0xf4, 0xd3, 0x33, 0x35, 0x03, 0x10, 0xc8, 0x45,
  0x08, 0xc9, 0x6f, 0xf8, 0x4f, 0xb9, 0xc3, 0x09, 0x48, 0x57, 0xae, 0x01,
  0xb7, 0xd0, 0xf4, 0xcf, 0x05, 0x19, 0xd4, 0x42, 0xaf, 0xa3, 0x43, 0x01,
  0xda, 0xf3, 0xff, 0xff, 0x04, 0x00, 0x00, 0x00, 0x80, 0x00, 0x00, 0x00,
  0x79, 0x16, 0x00, 0x00, 0x37, 0xfc, 0xff, 0xff, 0x9a, 0xf7, 0xff, 0xff,
  0x57, 0x0d, 0x00, 0x00, 0xc2, 0x20, 0x00, 0x00, 0x5c, 0xe4, 0xff, 0xff,
  0xe3, 0x02, 0x00, 0x00, 0x5b, 0xd4, 0xff, 0xff, 0x6f, 0x15, 0x00, 0x00,
  0xea, 0x1f, 0x00, 0x00, 0x3e, 0x1e, 0x00, 0x00, 0x9c, 0xc4, 0xff, 0xff,
  0x14, 0x32, 0x00, 0x00, 0xdc, 0x16, 0x00, 0x00, 0xcc, 0x1d, 0x00, 0x00,
  0xd1, 0x01, 0x00, 0x00, 0xd0, 0xed, 0xff, 0xff, 0x88, 0x04, 0x00, 0x00,
  0x89, 0xfa, 0xff, 0xff, 0xfb, 0x00, 0x00, 0x00, 0xfc, 0xe3, 0xff, 0xff,
  0x60, 0x0c, 0x00, 0x00, 0xe0, 0xfb, 0xff, 0xff, 0xb0, 0x02, 0x00, 0x00,
  0x80, 0x0f, 0x00, 0x00, 0xbc, 0x04, 0x00, 0x00, 0xe4, 0x11, 0x00, 0x00,
  0x75, 0x05, 0x00, 0x00, 0x0f, 0x1a, 0x00, 0x00, 0xab, 0x01, 0x00, 0x00,
  0x0c, 0x01, 0x00, 0x00, 0xd5, 0x02, 0x00, 0x00, 0x66, 0xf4, 0xff, 0xff,
  0x04, 0x00, 0x00, 0x00, 0x00, 0x06, 0x00, 0x00, 0xa7, 0x4e, 0xcf, 0xc2,
  0x19, 0x77, 0xe2, 0x21, 0x47, 0x2d, 0xe7, 0xf2, 0xe8, 0xcd, 0xe0, 0x9b,
  0xfe, 0x04, 0x40, 0x0c, 0xdd, 0x39, 0x0b, 0x7f, 0x5f, 0xd5, 0xae, 0x2c,
  0xef, 0xb1, 0x75, 0xf3, 0x3b, 0xc9, 0x4a, 0xcc, 0xf7, 0x01, 0x30, 0x04,
  0xe6, 0x00, 0xc9, 0xe9, 0x58, 0xba, 0xb9, 0x5e, 0xe4, 0xa6, 0xfd, 0x1f,
  0xc1, 0x46, 0xb9, 0x51, 0xb3, 0x9f, 0x0d, 0xef, 0x41, 0xc9, 0xcd, 0x7b,
  0x37, 0x38, 0x04, 0x9e, 0xe5, 0x3c, 0x1b, 0xe3, 0xb1, 0xbf, 0xac, 0xde,
  0xd1, 0x09, 0x3b, 0x1e, 0x27, 0xe1, 0xbd, 0x00, 0x11, 0xe0, 0x3d, 0xee,
  0xe9, 0xd1, 0xea, 0x5e, 0x3e, 0x42, 0x1b, 0x43, 0x45, 0x54, 0xf2, 0x0d,
  0x07, 0x32, 0x81, 0x4c, 0x4e, 0x23, 0x35, 0xb3, 0xe5, 0xd9, 0xf2, 0xc2,
  0x28, 0x4b, 0x4a, 0xd8, 0xee, 0xd9, 0xeb, 0xac, 0xf8, 0xfd, 0x55, 0xcd,
  0x78, 0x4c, 0xf5, 0xee, 0x3c, 0xf2, 0xce, 0xf4, 0x0d, 0xae, 0xb2, 0x56,
  0xd1, 0xaf, 0x07, 0x28, 0xa1, 0x26, 0x1c, 0x25, 0xfa, 0x1c, 0xd5, 0x4e,
  0x1b, 0x34, 0x4a, 0xd9, 0x3f, 0xb3, 0x1f, 0xe0, 0xe5, 0x21, 0xe3, 0xea,
  0x01, 0x16, 0xf1, 0xbd, 0xbc, 0xe6, 0xf7, 0x27, 0x3f, 0xbc, 0xd6, 0xfe,
  0x51, 0xf5, 0xe1, 0xbf, 0xe4, 0xbe, 0x55, 0x1b, 0xec, 0x31, 0x09, 0x2b,
  0xbf, 0x14, 0xec, 0xcf, 0x37, 0xb4, 0x27, 0x42, 0x15, 0x36, 0x06, 0x40,
  0x40, 0x0e, 0x16, 0xb7, 0xcb, 0xe8, 0x32, 0x11, 0xd4, 0xd7, 0x35, 0x61,
  0xcc, 0x15, 0x49, 0x2a, 0xd8, 0x15, 0xda, 0x44, 0xaf, 0x05, 0x0f, 0xd7,
  0xa8, 0x1e, 0xf1, 0x2a, 0x3a, 0x0c, 0xa2, 0xb7, 0x0a, 0xd8, 0xef, 0xd1,
  0x38, 0xd1, 0xc8, 0x3e, 0x7f, 0x2c, 0x9d, 0xfd, 0xe4, 0x0d, 0x02, 0xb7,
  0x2f, 0x11, 0xc4, 0xcd, 0xec, 0xf0, 0xff, 0xdd, 0x35, 0x45, 0xd0, 0xe3,
  0xe6, 0xca, 0xe3, 0xdb, 0x24, 0x44, 0x34, 0xe2, 0xc3, 0x21, 0x1b, 0x34,
  0x09, 0x76, 0xec, 0xf2, 0xcc, 0x3a, 0x29, 0x1b, 0xc1, 0x0f, 0x44, 0xc4,
  0x11, 0xd9, 0xfb, 0xea, 0xb0, 0xc5, 0x11, 0x2f, 0x37, 0xc2, 0xe3, 0xc3,
  0x56, 0x31, 0xfd, 0x1b, 0xf2, 0xc7, 0x2c, 0xd4, 0xd1, 0x4c, 0xea, 0xa5,
  0xf7, 0x19, 0x43, 0x2b, 0x2c, 0x40, 0xbd, 0x92, 0xca, 0x4d, 0x0b, 0x07,
  0x6f, 0xbd, 0xe0, 0xc0, 0xd4, 0xd9, 0xba, 0xda, 0x7f, 0xe8, 0x10, 0x3d,
  0x50, 0x14, 0xd6, 0xf3, 0xc3, 0x0b, 0xc7, 0xb5, 0x11, 0xfc, 0x5a, 0xd9,
  0x04, 0xd1, 0x19, 0xff, 0x33, 0xdf, 0x22, 0xb3, 0x28, 0xf2, 0xcc, 0xfe,
  0x06, 0x28, 0x1e, 0x0d, 0x08, 0x0e, 0xd1, 0x38, 0xe8, 0x26, 0x38, 0x03,
  0xd5, 0xcd, 0xc7, 0x5e, 0xcd, 0xcc, 0xcc, 0xe2, 0x61, 0xc6, 0xbb, 0xd1,
  0x0d, 0xcf, 0xd2, 0xee, 0x5a, 0xb2, 0xc8, 0xf6, 0x12, 0x53, 0x20, 0x44,
  0xd3, 0xe0, 0xfe, 0xfc, 0xbf, 0xe8, 0xd1, 0x36, 0xc3, 0x70, 0x9c, 0xbb,
  0x03, 0x7e, 0x54, 0xca, 0x10, 0xea, 0x5f, 0xda, 0xdc, 0x38, 0xf0, 0x30,
  0x6d, 0xe5, 0x1a, 0xe7, 0xb8, 0xd6, 0x9a, 0xfe, 0x11, 0xee, 0x50, 0x54,
  0xdc, 0x81, 0xd9, 0xb5, 0xae, 0xc8, 0xcd, 0xfa, 0x40, 0x0b, 0x46, 0xd6,
  0x53, 0x3f, 0xcd, 0x23, 0x49, 0xe3, 0xff, 0x1b, 0x1f, 0x51, 0xd9, 0x44,
  0x5e, 0x22, 0xa5, 0x21, 0x42, 0xae, 0xb8, 0xfc, 0xee, 0x10, 0x05, 0xaf,
  0xe3, 0xd7, 0x01, 0x28, 0x19, 0x4e, 0x54, 0x41, 0xee, 0xfc, 0xe8, 0x8d,
  0x03, 0xc8, 0xb3, 0xd9, 0x24, 0xd1, 0x23, 0xb1, 0xe7, 0x91, 0x41, 0xc0,
  0x0b, 0x15, 0xdf, 0x40, 0x10, 0x5c, 0xab, 0xa7, 0xfa, 0xdd, 0xdb, 0xa7,
  0xce, 0xed, 0x1d, 0xbf, 0x59, 0x3b, 0x3c, 0x1f, 0x56, 0xa3, 0xca, 0xf8,
  0x55, 0xdb, 0x1b, 0xc9, 0xda, 0xb0, 0xe0, 0xbc, 0x17, 0xa2, 0x81, 0x21,
  0xc7, 0xd4, 0xe1, 0x1c, 0x78, 0xa4, 0xc6, 0x3c, 0x49, 0xdc, 0x4b, 0x87,
  0x44, 0xcc, 0xb9, 0xac, 0x53, 0xb0, 0x76, 0x9e, 0xd4, 0x0b, 0x17, 0xc9,
  0xb5, 0xe2, 0x53, 0xea, 0x6d, 0xe0, 0x10, 0xeb, 0xeb, 0x0a, 0x11, 0xa9,
  0x76, 0xad, 0x48, 0x13, 0x34, 0xdc, 0xca, 0x31, 0xc6, 0x26, 0xf8, 0x53,
  0x26, 0x04, 0x76, 0x21, 0xc2, 0xaf, 0xcc, 0x46, 0x46, 0xfe, 0xe0, 0xf9,
  0x1b, 0x4d, 0xd6, 0x06, 0x4f, 0x07, 0x4e, 0xf2, 0xe5, 0x54, 0xc8, 0x23,
  0x55, 0xc4, 0xfd, 0xcf, 0xe5, 0xe6, 0x1f, 0xd2, 0xa3, 0xd4, 0x02, 0x12,
  0xb4, 0xc1, 0xf8, 0xec, 0x1c, 0x33, 0x1e, 0xc4, 0xd3, 0xab, 0xed, 0x35,
  0xd0, 0x3f, 0x13, 0x12, 0xd5, 0xcc, 0xd3, 0xf7, 0x31, 0x21, 0x11, 0xbb,
  0x29, 0x49, 0xc8, 0x17, 0xb1, 0xdc, 0x5b, 0x60, 0x5c, 0x0b, 0xc9, 0xec,
  0xf6, 0xe9, 0xb9, 0xfd, 0x6a, 0x07, 0x1d, 0xdb, 0x22, 0xf5, 0x52, 0x5d,
  0x39, 0x4b, 0x22, 0x5b, 0xaa, 0x73, 0x2c, 0x50, 0xaf, 0xeb, 0x75, 0xa9,
  0xaf, 0x7f, 0x02, 0xc0, 0xec, 0xbb, 0x12, 0xeb, 0x0a, 0xc4, 0x7f, 0x1f,
  0x24, 0xf5, 0xe7, 0xc7, 0xfb, 0xe5, 0x89, 0x51, 0x2a, 0x71, 0xae, 0x16,
  0x4a, 0x4e, 0x48, 0x0c, 0xda, 0x2e, 0x6c, 0x75, 0x7f, 0xbc, 0x05, 0xf5,
  0x38, 0x56, 0xfd, 0x36, 0x1d, 0xa6, 0xc2, 0xc9, 0x62, 0xcf, 0xe8, 0x15,
  0x56, 0xcf, 0x15, 0xda, 0xf4, 0xf5, 0x5e, 0x2e, 0xc2, 0xb5, 0x33, 0xc0,
  0xb2, 0xec, 0x01, 0xdb, 0xeb, 0x14, 0x70, 0x0c, 0x36, 0xde, 0x2d, 0x27,
  0x91, 0x3b, 0x43, 0x12, 0x22, 0xe3, 0x29, 0x01, 0xf5, 0x95, 0xc4, 0x0f,
  0x04, 0x5e, 0xeb, 0xf9, 0xb6, 0x2a, 0xc9, 0xe4, 0x2a, 0x05, 0x46, 0xbd,
  0x7a, 0x20, 0xaa, 0x65, 0x35, 0xd0, 0x00, 0x21, 0x4f, 0xf1, 0x3f, 0x0f,
  0xfd, 0xef, 0x3b, 0xb0, 0x0f, 0x03, 0x34, 0x64, 0xcc, 0x1c, 0x48, 0xb4,
  0x3a, 0xb8, 0x57, 0xbf, 0x25, 0x44, 0x01, 0x38, 0x33, 0xce, 0x2b, 0xf1,
  0xef, 0x19, 0xfc, 0x49, 0x06, 0xb8, 0x5d, 0xc5, 0x53, 0x4b, 0xaa, 0xe8,
  0xac, 0xcb, 0xd0, 0x34, 0xae, 0x31, 0xc8, 0x00, 0x24, 0xd6, 0xed, 0xf4,
  0x01, 0x51, 0xa7, 0xa4, 0x7f, 0xe4, 0x3d, 0x3f, 0xd6, 0xdb, 0x34, 0xe7,
  0x35, 0x4e, 0x2d, 0xaf, 0xf3, 0xe6, 0x92, 0x09, 0x0e, 0x14, 0x12, 0xf9,
  0xd9, 0xec, 0xf4, 0x3f, 0xf5, 0xb2, 0xf6, 0x5a, 0x49, 0xb9, 0xad, 0xe7,
  0x8a, 0x5c, 0x39, 0xf6, 0x25, 0x3e, 0x7b, 0xdd, 0xfa, 0x50, 0xa4, 0xd9,
  0x3b, 0x3a, 0xad, 0x21, 0x9f, 0xa5, 0xc3, 0x35, 0xac, 0xe7, 0x4e, 0x12,
  0xb6, 0xe1, 0x06, 0xdb, 0x6c, 0xfd, 0x2a, 0xec, 0x26, 0x2c, 0x81, 0x36,
  0x28, 0x1c, 0xd8, 0xc1, 0x06, 0x08, 0x3e, 0xbd, 0xec, 0x02, 0x5f, 0x9e,
  0x3d, 0x2e, 0x46, 0x15, 0x2b, 0x29, 0xe5, 0x2b, 0x9b, 0x2a, 0x60, 0x06,
  0x46, 0x28, 0x3a, 0xb2, 0xc5, 0xb0, 0xad, 0xdd, 0x42, 0x35, 0x01, 0x97,
  0x16, 0xce, 0xe2, 0x31, 0xd4, 0xd9, 0xde, 0xa7, 0x30, 0xad, 0x38, 0x41,
  0xf1, 0xb0, 0x2f, 0x4c, 0x40, 0x56, 0x41, 0xf9, 0xc6, 0x34, 0x19, 0x2d,
  0xb3, 0x3c, 0x01, 0x3c, 0x26, 0xd1, 0x46, 0xb0, 0xdf, 0xf7, 0x9d, 0x17,
  0x68, 0xc6, 0x39, 0x2b, 0x08, 0xd9, 0xd4, 0xc9, 0x32, 0x4e, 0x38, 0xf5,
  0x62, 0xe8, 0x19, 0xec, 0x30, 0x1a, 0x98, 0xb8, 0xb5, 0xbe, 0x33, 0x45,
  0x05, 0x01, 0x7c, 0x06, 0x31, 0xd7, 0x44, 0x26, 0x06, 0x1a, 0xee, 0x2b,
  0xce, 0xfd, 0x45, 0x3f, 0x26, 0xbe, 0xdf, 0xdb, 0x34, 0xea, 0x2e, 0x14,
  0x4f, 0xcf, 0xdd, 0x1a, 0x17, 0x0d, 0x12, 0x36, 0xb5, 0xc9, 0x29, 0x66,
  0x09, 0x1b, 0xd6, 0xe4, 0xee, 0x25, 0x22, 0xdd, 0xc8, 0xbd, 0x19, 0xac,
  0xd5, 0xc9, 0xd0, 0x2a, 0x15, 0xf1, 0x16, 0xf5, 0xc3, 0x81, 0x44, 0x22,
  0x03, 0xc1, 0x21, 0x4a, 0x3e, 0xce, 0x50, 0xc4, 0x2c, 0x55, 0x2f, 0xad,
  0x4d, 0xc9, 0x7b, 0x9a, 0x57, 0xc7, 0x4d, 0xc6, 0xfa, 0xf7, 0xaa, 0x28,
  0xc7, 0xb3, 0xe8, 0xe1, 0x64, 0x5d, 0x8c, 0xfe, 0xad, 0xa3, 0x81, 0xca,
  0x15, 0xd6, 0xe6, 0xc6, 0x30, 0x00, 0xda, 0x00, 0x4d, 0x5e, 0x79, 0x1c,
  0x0c, 0xf6, 0xd6, 0xbe, 0x2a, 0xf0, 0x02, 0xc3, 0x3c, 0x44, 0xe6, 0x34,
  0xbc, 0x3a, 0xcd, 0x53, 0x2f, 0x55, 0x17, 0xc6, 0x33, 0x4d, 0xe7, 0x7a,
  0x0e, 0xf3, 0xd9, 0xd6, 0xa7, 0xde, 0xfa, 0x1a, 0x35, 0xf5, 0xea, 0x29,
  0xf4, 0x26, 0x1c, 0x3d, 0x57, 0xd4, 0xa7, 0xe2, 0x40, 0xb7, 0x5c, 0xa6,
  0x08, 0xe6, 0xe5, 0x0d, 0xbc, 0xb1, 0xb6, 0x1c, 0x0a, 0x5e, 0x56, 0xfe,
  0x31, 0xa0, 0x0b, 0xbd, 0xd8, 0xbb, 0x2a, 0x34, 0xc6, 0x4d, 0xc9, 0x20,
  0x2d, 0x12, 0xe5, 0x30, 0xf2, 0xcd, 0x36, 0x86, 0x60, 0x3f, 0x08, 0xd4,
  0x79, 0xcc, 0x3b, 0xdb, 0x1a, 0x7f, 0x5a, 0xca, 0xac, 0xaf, 0xab, 0x1c,
  0xd6, 0xdf, 0x1f, 0x5b, 0xf5, 0xe0, 0x28, 0xbd, 0x29, 0x17, 0xee, 0xf7,
  0x0c, 0xf3, 0xdd, 0xca, 0xb3, 0xd4, 0xb8, 0x23, 0xd5, 0xb8, 0x08, 0xb6,
  0x2d, 0x6b, 0x0c, 0xaf, 0xab, 0x18, 0x08, 0x4d, 0x45, 0xaa, 0xca, 0x37,
  0x51, 0x43, 0x60, 0x10, 0xaa, 0xd2, 0x25, 0x5a, 0x28, 0xf7, 0xbb, 0x1f,
  0xe5, 0x38, 0xf9, 0xb9, 0x4a, 0x3a, 0xd8, 0x21, 0x20, 0xcd, 0xf1, 0x32,
  0x26, 0xf1, 0x5b, 0x40, 0xff, 0x14, 0x6a, 0x0b, 0x59, 0xf2, 0x38, 0x0f,
  0xf2, 0xf3, 0x4a, 0x20, 0xb4, 0x16, 0x12, 0xf3, 0x08, 0x05, 0xe0, 0xf2,
  0xf7, 0x36, 0xfe, 0x50, 0x4c, 0x47, 0xa5, 0x4e, 0xc5, 0x18, 0xad, 0xac,
  0x1a, 0x4e, 0xb6, 0x1b, 0x42, 0x22, 0x30, 0x40, 0xcf, 0xaf, 0xe2, 0x3e,
  0xe0, 0xbc, 0xb3, 0x78, 0xb6, 0x60, 0x83, 0xca, 0xeb, 0x11, 0xc8, 0xb5,
  0x60, 0x57, 0xb5, 0x33, 0x91, 0x21, 0x1c, 0xca, 0x4b, 0x70, 0xcd, 0x1b,
  0xd3, 0x08, 0x11, 0x34, 0x51, 0xdd, 0x0f, 0xe5, 0xf9, 0x4f, 0x2c, 0x13,
  0xa0, 0xc8, 0x81, 0xb6, 0x13, 0xe9, 0x4c, 0xb0, 0xca, 0xb0, 0xc5, 0x69,
  0x2c, 0x53, 0x76, 0xf3, 0x3e, 0x00, 0x8b, 0x1a, 0xf5, 0x47, 0x25, 0x2b,
  0xd6, 0xf7, 0x21, 0x62, 0xf2, 0x23, 0xd0, 0x18, 0xcb, 0x00, 0x3f, 0xc5,
  0xf2, 0xfc, 0xd9, 0x50, 0x10, 0x30, 0x81, 0x12, 0x1e, 0xc3, 0xea, 0xe8,
  0xb7, 0xf1, 0x3b, 0xfb, 0x2b, 0x23, 0x21, 0xc6, 0x4b, 0x8d, 0xf1, 0x43,
  0x5d, 0x0c, 0xeb, 0x05, 0x47, 0xce, 0x08, 0xb9, 0x60, 0xfd, 0xdf, 0x61,
  0x1b, 0xf8, 0x19, 0xec, 0xfb, 0x09, 0x07, 0x40, 0xbc, 0xc1, 0x25, 0xb8,
  0xde, 0x17, 0xaf, 0xf8, 0xcc, 0x15, 0x25, 0xb6, 0xf9, 0xe0, 0x39, 0x00,
  0x52, 0x11, 0x23, 0xf6, 0x14, 0xfa, 0x10, 0x27, 0x8b, 0x29, 0xd8, 0x0e,
  0x49, 0xd8, 0xe6, 0xb7, 0x38, 0x92, 0xbd, 0xc6, 0x53, 0x23, 0x1d, 0x4e,
  0x22, 0x17, 0x44, 0x22, 0xb7, 0xd5, 0x0c, 0x1a, 0xfb, 0x23, 0x13, 0x43,
  0xe0, 0xe2, 0x1a, 0xe1, 0x37, 0x32, 0x17, 0xf9, 0xac, 0xb2, 0xc0, 0x16,
  0x0e, 0xaf, 0x6c, 0x3f, 0x3a, 0xf7, 0xbf, 0xbc, 0x8d, 0x62, 0xa9, 0xce,
  0x25, 0x40, 0x67, 0x20, 0x4c, 0x35, 0x48, 0x4c, 0xfe, 0x1e, 0x2e, 0xe4,
  0x40, 0x7b, 0x00, 0x42, 0x2c, 0xeb, 0xa3, 0x4c, 0x6f, 0x0a, 0x31, 0x0a,
  0xd8, 0x00, 0xd3, 0x3c, 0xbe, 0xf9, 0x32, 0xd6, 0x31, 0xf2, 0x2a, 0xa9,
  0xc4, 0x16, 0xef, 0xde, 0x7f, 0xa7, 0x1d, 0x2d, 0x72, 0xfa, 0xff, 0xff,
  0x04, 0x00, 0x00, 0x00, 0x40, 0x00, 0x00, 0x00, 0x1e, 0xff, 0xff, 0xff,
  0x14, 0xfe, 0xff, 0xff, 0x2d, 0x02, 0x00, 0x00, 0xe6, 0x0f, 0x00, 0x00,
  0x5e, 0x04, 0x00, 0x00, 0x88, 0x13, 0x00, 0x00, 0x3a, 0xf6, 0xff, 0xff,
  0x6e, 0xe9, 0xff, 0xff, 0x3e, 0xf5, 0xff, 0xff, 0xef, 0xff, 0xff, 0xff,
  0x95, 0xf9, 0xff, 0xff, 0x53, 0x02, 0x00, 0x00, 0x50, 0xf9, 0xff, 0xff,
  0x4a, 0xf7, 0xff, 0xff, 0x40, 0xf5, 0xff, 0xff, 0x29, 0xee, 0xff, 0xff,
  0xbe, 0xfa, 0xff, 0xff, 0x04, 0x00, 0x00, 0x00, 0x10, 0x04, 0x00, 0x00,
  0x1a, 0xee, 0xb7, 0x0b, 0xf9, 0x12, 0xd2, 0x24, 0x0b, 0x22, 0xf8, 0xd5,
  0xc1, 0x85, 0xe8, 0xb9, 0xc5, 0xfc, 0x16, 0xf8, 0x20, 0xd9, 0xc5, 0xfe,
  0xaf, 0xe3, 0x37, 0x08, 0x5f, 0x1c, 0x0d, 0x31, 0xd2, 0x02, 0xf9, 0x1b,
  0xb0, 0x68, 0x2f, 0x40, 0x64, 0x25, 0x0e, 0xfb, 0x26, 0xe4, 0xfb, 0x42,
  0x1d, 0x68, 0x50, 0x1f, 0x94, 0x5d, 0xec, 0x10, 0xa8, 0xf2, 0xb0, 0xd7,
  0x99, 0x89, 0xe5, 0x24, 0xe6, 0x13, 0x39, 0x0e, 0xe5, 0x4c, 0x40, 0x57,
  0x55, 0x5d, 0x11, 0x40, 0x2c, 0x40, 0x5b, 0xba, 0x09, 0xc1, 0xea, 0xf6,
  0xc7, 0xdb, 0xa6, 0x22, 0xe6, 0x14, 0xe5, 0xed, 0xee, 0xbb, 0xc5, 0xdb,
  0xdf, 0xf5, 0xdb, 0xe9, 0x11, 0x04, 0x21, 0xee, 0x09, 0xdd, 0xda, 0xcd,
  0xb7, 0xc3, 0xe8, 0xff, 0x21, 0xb2, 0x07, 0xc8, 0xa3, 0xfb, 0xcf, 0xd2,
  0xf9, 0xef, 0x0d, 0xc1, 0x13, 0xf3, 0x02, 0xcd, 0xf6, 0xf4, 0x6d, 0xc8,
  0xb1, 0xac, 0xe1, 0xac, 0xc8, 0xc8, 0xf5, 0xbe, 0x10, 0xa1, 0xb3, 0x42,
  0xb1, 0x07, 0xe7, 0x08, 0x59, 0xe7, 0xfc, 0xd3, 0x07, 0x56, 0x6f, 0xfb,
  0xca, 0xca, 0xeb, 0xf1, 0xf8, 0x04, 0x52, 0xb0, 0xb5, 0xba, 0xfd, 0xbb,
  0x16, 0x1e, 0x54, 0x5d, 0x4a, 0x45, 0xe8, 0xe3, 0x10, 0x0a, 0xca, 0xc4,
  0xb8, 0xb5, 0x4c, 0xb1, 0x43, 0x05, 0xd5, 0xed, 0xaf, 0xcd, 0x12, 0xf8,
  0xe5, 0xed, 0x07, 0x11, 0x9a, 0xc7, 0xd9, 0xb0, 0x20, 0xd8, 0x08, 0xf7,
  0xdf, 0x11, 0xb8, 0xde, 0xa7, 0xc0, 0x11, 0x47, 0xd2, 0xbf, 0xd3, 0xfa,
  0xd4, 0xe0, 0x17, 0x3a, 0x1e, 0xd2, 0x49, 0x45, 0x17, 0x0f, 0x17, 0x42,
  0x3d, 0x52, 0x52, 0xff, 0x37, 0x54, 0x54, 0x21, 0x15, 0x52, 0x31, 0xf0,
  0x00, 0xd1, 0xcc, 0x53, 0x39, 0xd1, 0xd7, 0xa2, 0x2b, 0x41, 0x12, 0x1f,
  0x1e, 0x54, 0x2f, 0x0e, 0x23, 0xbe, 0xeb, 0x3f, 0x2a, 0xc4, 0x39, 0xe1,
  0x0e, 0x3c, 0x2a, 0xf5, 0x02, 0x5b, 0x2a, 0xff, 0x40, 0xe7, 0xf8, 0x21,
  0x4f, 0xfc, 0xfc, 0xfc, 0xfd, 0x0c, 0x1c, 0x43, 0xfb, 0x53, 0x25, 0xf3,
  0x10, 0x20, 0xe1, 0x4b, 0x1e, 0x2b, 0x47, 0x2c, 0xd6, 0xce, 0xb8, 0xc8,
  0x1c, 0xb1, 0x01, 0xee, 0x2d, 0x3b, 0x42, 0xe6, 0xda, 0x2b, 0xf5, 0x44,
  0xa6, 0x44, 0xe3, 0xb3, 0xd6, 0xc0, 0xcd, 0x20, 0x2e, 0x0e, 0xea, 0xdb,
  0xc4, 0x5e, 0xea, 0xe2, 0x1e, 0x17, 0x47, 0x0c, 0x58, 0x0d, 0x5e, 0x60,
  0xf3, 0x0b, 0xe1, 0xc3, 0x44, 0xaa, 0xea, 0xa4, 0xb8, 0xb6, 0xc4, 0xa2,
  0xb1, 0xa6, 0xa5, 0x84, 0xc1, 0xee, 0x36, 0xc7, 0xa5, 0xb1, 0x33, 0xf8,
  0xe4, 0xf6, 0xad, 0x0f, 0x21, 0x2a, 0xd1, 0xde, 0x24, 0x35, 0xfa, 0x32,
  0x0a, 0xc7, 0xe0, 0x96, 0xc6, 0xa1, 0xcb, 0xad, 0xbc, 0xf5, 0x12, 0xe8,
  0xd5, 0xe9, 0xf5, 0xaf, 0xbf, 0xab, 0xf8, 0xde, 0xaf, 0x0e, 0x39, 0xc8,
  0xf7, 0x02, 0xdb, 0xdc, 0xf0, 0x20, 0x08, 0x02, 0x4c, 0x20, 0xc6, 0x71,
  0x6d, 0x53, 0x69, 0x5c, 0x66, 0x53, 0xb9, 0xb0, 0xf7, 0x3f, 0x49, 0x0b,
  0xed, 0x11, 0x52, 0x5c, 0x25, 0xed, 0x52, 0x19, 0xc4, 0xd5, 0x08, 0xba,
  0x4b, 0xea, 0xfa, 0xd5, 0xb6, 0xfa, 0xcd, 0xbf, 0x10, 0xea, 0xcc, 0x98,
  0xbd, 0xbd, 0xf4, 0xa6, 0xfc, 0x0f, 0xef, 0xaa, 0xed, 0xca, 0xf1, 0xd5,
  0xfc, 0xdb, 0xe1, 0xe0, 0xb0, 0xe7, 0x0f, 0x05, 0xed, 0xfe, 0x27, 0xdc,
  0xdb, 0x12, 0xe8, 0xe3, 0xda, 0xde, 0x0d, 0xd7, 0xe7, 0xd0, 0x09, 0xea,
  0xa6, 0x2c, 0x01, 0xdb, 0x12, 0xcb, 0xc9, 0x04, 0xe0, 0xea, 0xd0, 0x05,
  0x57, 0xdf, 0xb9, 0xe6, 0xb8, 0xf3, 0xf8, 0x36, 0xcb, 0xfc, 0x04, 0xfe,
  0xd3, 0x1d, 0xb7, 0x54, 0x47, 0x47, 0x4d, 0x29, 0x2a, 0x15, 0xf6, 0x4b,
  0x4f, 0x33, 0x1b, 0xaf, 0x17, 0x2b, 0xec, 0x53, 0x24, 0x32, 0x59, 0x3c,
  0xfd, 0x2f, 0x38, 0x0c, 0xbe, 0xe0, 0xe2, 0x0d, 0xec, 0x38, 0x4f, 0xda,
  0xfc, 0xf5, 0xe3, 0x3c, 0xb2, 0xbf, 0xc1, 0x10, 0xe1, 0xf0, 0x5a, 0x39,
  0x3d, 0x41, 0x1a, 0x1b, 0xcf, 0xf2, 0xaa, 0xec, 0xe6, 0xe7, 0xe2, 0xd0,
  0xd5, 0xce, 0xe2, 0xcd, 0x1e, 0xf9, 0x95, 0x94, 0xc4, 0x3b, 0x58, 0x22,
  0x3b, 0xe5, 0xf6, 0xf5, 0xaa, 0x1a, 0x18, 0x23, 0xba, 0xd7, 0x05, 0x06,
  0x08, 0xb6, 0x15, 0xc0, 0xea, 0x1f, 0xe8, 0xbd, 0x97, 0xfb, 0x25, 0x2a,
  0xfb, 0xc0, 0xbe, 0x44, 0xfc, 0x04, 0x46, 0xf6, 0x12, 0xe8, 0x19, 0xf1,
  0xd1, 0xe6, 0x2c, 0x00, 0x30, 0x10, 0xf6, 0x00, 0xf1, 0x11, 0x0e, 0xd7,
  0xcc, 0x4c, 0x21, 0x1f, 0xec, 0x0e, 0xe2, 0xcd, 0xa5, 0xd6, 0xf2, 0x44,
  0x2e, 0x41, 0x40, 0xff, 0xf4, 0xd8, 0xd1, 0xcc, 0xbe, 0xb1, 0xf0, 0x58,
  0x26, 0x34, 0xcc, 0xaa, 0xbb, 0x0b, 0xfa, 0xc7, 0x02, 0xfc, 0xdb, 0x16,
  0xc4, 0x1c, 0xb4, 0x41, 0xe6, 0xd0, 0xb8, 0xae, 0x96, 0xa5, 0x0e, 0x35,
  0x09, 0xc7, 0xf1, 0xdc, 0xe9, 0xde, 0xea, 0xc5, 0xd9, 0xb8, 0x03, 0xc5,
  0xc8, 0xf9, 0x28, 0x58, 0x3b, 0xd6, 0x46, 0x4a, 0x22, 0x05, 0x12, 0xf2,
  0x03, 0xed, 0xa4, 0xa8, 0x8c, 0xa9, 0xe6, 0x05, 0xb7, 0xb3, 0x04, 0xe6,
  0xe4, 0xf8, 0xd7, 0xc2, 0xaf, 0xf2, 0xd4, 0xa6, 0xc6, 0xf7, 0x20, 0xe4,
  0x0b, 0xe7, 0xc8, 0xcf, 0x06, 0xe5, 0x20, 0xf9, 0xb2, 0xf4, 0xbf, 0x29,
  0x1f, 0xd5, 0x14, 0xc1, 0x1b, 0xda, 0x3b, 0x50, 0x48, 0x30, 0xe6, 0xed,
  0x21, 0xd8, 0xd6, 0xee, 0xc2, 0xc6, 0xd5, 0x3f, 0x29, 0xf7, 0x1d, 0xe0,
  0x03, 0xf0, 0x1a, 0xda, 0xc9, 0xce, 0xfe, 0xf9, 0x4c, 0x08, 0x38, 0xc9,
  0x21, 0xdf, 0xd8, 0x03, 0xb3, 0x32, 0x1e, 0xfe, 0x51, 0x4a, 0x3a, 0xe0,
  0x25, 0xd1, 0xb8, 0x32, 0xd6, 0xfa, 0x0b, 0x59, 0x60, 0x0a, 0x3b, 0xec,
  0x3f, 0x6c, 0xf1, 0x25, 0x29, 0x1d, 0x2f, 0xc2, 0x03, 0x0f, 0xc8, 0x3f,
  0x58, 0xf8, 0xf4, 0xe8, 0x1f, 0xa6, 0x0c, 0xc2, 0x21, 0xc4, 0xed, 0x06,
  0x32, 0x35, 0x33, 0x0f, 0xb4, 0xf0, 0x25, 0x1f, 0xc9, 0x15, 0xff, 0xd3,
  0x32, 0x17, 0x21, 0xfa, 0xd9, 0x3a, 0x1e, 0xba, 0xfe, 0x0c, 0xe9, 0xea,
  0x1b, 0x26, 0x1a, 0xd1, 0xa3, 0x51, 0xe8, 0x3b, 0x50, 0x0f, 0x23, 0x08,
  0xe0, 0x2e, 0xed, 0xd2, 0xd3, 0x00, 0xa6, 0x64, 0xe7, 0xde, 0x20, 0x5f,
  0xf9, 0xf4, 0x4c, 0xb9, 0xea, 0x37, 0x09, 0x43, 0xd5, 0x56, 0x6a, 0x39,
  0x21, 0x08, 0xe3, 0xcc, 0x03, 0xc9, 0xe8, 0xc8, 0x0b, 0x18, 0x19, 0x4e,
  0x41, 0x1d, 0xe5, 0x50, 0x47, 0xfb, 0x06, 0xd0, 0xd2, 0xd1, 0xbc, 0xf6,
  0xa0, 0xbc, 0xcd, 0x03, 0x0e, 0xaa, 0xaf, 0xdc, 0xaf, 0x81, 0x2f, 0xc7,
  0x07, 0x38, 0x38, 0xb7, 0x32, 0x10, 0x5d, 0x54, 0x1a, 0x14, 0x0d, 0x13,
  0xd1, 0x13, 0x09, 0x2f, 0x36, 0x32, 0xac, 0xb7, 0xb6, 0x03, 0xe3, 0x14,
  0x01, 0xe8, 0xf9, 0xb7, 0xf7, 0xb0, 0xa8, 0xf3, 0x16, 0xce, 0x15, 0xbc,
  0x99, 0xe1, 0x1d, 0xcb, 0x22, 0xce, 0xcd, 0xd0, 0xb7, 0x19, 0xbd, 0xd3,
  0x02, 0x59, 0x15, 0x03, 0xe8, 0x0e, 0xf1, 0x21, 0xf8, 0x25, 0x2a, 0x06,
  0xb4, 0xe3, 0x90, 0xd9, 0xf9, 0x41, 0xe7, 0xed, 0x2e, 0x21, 0xf7, 0x1b,
  0x2c, 0xeb, 0xcc, 0x0c, 0x60, 0xe1, 0x13, 0xe0, 0xca, 0xde, 0xa9, 0xf8,
  0xd9, 0x9a, 0xdc, 0x00, 0xef, 0xde, 0xed, 0x09, 0xef, 0xe9, 0x09, 0xf5,
  0x53, 0x36, 0x58, 0xfa, 0x67, 0x47, 0x85, 0x2d, 0x2d, 0x3c, 0x61, 0x50,
  0x5c, 0xc5, 0x31, 0x0e, 0xeb, 0xb2, 0xc2, 0x5b, 0x18, 0x22, 0xed, 0xd0,
  0xfc, 0xd5, 0xce, 0xe5, 0x1e, 0xbe, 0xbd, 0xeb, 0xda, 0xfe, 0xff, 0xff,
  0x04, 0x00, 0x00, 0x00, 0x14, 0x00, 0x00, 0x00, 0x74, 0x00, 0x00, 0x00,
  0xd2, 0xfd, 0xff, 0xff, 0x5f, 0xff, 0xff, 0xff, 0x29, 0x00, 0x00, 0x00,
  0x78, 0xfe, 0xff, 0xff, 0xfa, 0xfe, 0xff, 0xff, 0x04, 0x00, 0x00, 0x00,
  0x08, 0x00, 0x00, 0x00, 0xff, 0xff, 0xff, 0xff, 0xd0, 0x00, 0x00, 0x00,
  0x0e, 0xff, 0xff, 0xff, 0x04, 0x00, 0x00, 0x00, 0x0c, 0x00, 0x00, 0x00,
  0x00, 0x00, 0x00, 0x00, 0x02, 0x00, 0x00, 0x00, 0x01, 0x00, 0x00, 0x00,
  0x26, 0xff, 0xff, 0xff, 0x04, 0x00, 0x00, 0x00, 0x0c, 0x00, 0x00, 0x00,
  0x01, 0x00, 0x00, 0x00, 0x0d, 0x00, 0x00, 0x00, 0x10, 0x00, 0x00, 0x00,
  0x3e, 0xff, 0xff, 0xff, 0x04, 0x00, 0x00, 0x00, 0x10, 0x00, 0x00, 0x00,
  0x01, 0x00, 0x00, 0x00, 0x01, 0x00, 0x00, 0x00, 0x77, 0x00, 0x00, 0x00,
  0x06, 0x00, 0x00, 0x00, 0x1c, 0xe9, 0xff, 0xff, 0x20, 0xe9, 0xff, 0xff,
  0x0f, 0x00, 0x00, 0x00, 0x4d, 0x4c, 0x49, 0x52, 0x20, 0x43, 0x6f, 0x6e,
  0x76, 0x65, 0x72, 0x74, 0x65, 0x64, 0x2e, 0x00, 0x01, 0x00, 0x00, 0x00,
  0x14, 0x00, 0x00, 0x00, 0x00, 0x00, 0x0e, 0x00, 0x18, 0x00, 0x14, 0x00,
  0x10, 0x00, 0x0c, 0x00, 0x08, 0x00, 0x04, 0x00, 0x0e, 0x00, 0x00, 0x00,
  0x14, 0x00, 0x00, 0x00, 0x1c, 0x00, 0x00, 0x00, 0x14, 0x03, 0x00, 0x00,
  0x18, 0x03, 0x00, 0x00, 0x1c, 0x03, 0x00, 0x00, 0x04, 0x00, 0x00, 0x00,
  0x6d, 0x61, 0x69, 0x6e, 0x00, 0x00, 0x00, 0x00, 0x0c, 0x00, 0x00, 0x00,
  0xd8, 0x02, 0x00, 0x00, 0x7c, 0x02, 0x00, 0x00, 0x18, 0x02, 0x00, 0x00,
  0xc4, 0x01, 0x00, 0x00, 0x80, 0x01, 0x00, 0x00, 0x38, 0x01, 0x00, 0x00,
  0xf4, 0x00, 0x00, 0x00, 0xd0, 0x00, 0x00, 0x00, 0xa8, 0x00, 0x00, 0x00,
  0x78, 0x00, 0x00, 0x00, 0x40, 0x00, 0x00, 0x00, 0x04, 0x00, 0x00, 0x00,
  0xbe, 0xfd, 0xff, 0xff, 0x1c, 0x00, 0x00, 0x00, 0x00, 0x00, 0x00, 0x09,
  0x1c, 0x00, 0x00, 0x00, 0x20, 0x00, 0x00, 0x00, 0x05, 0x00, 0x00, 0x00,
  0x00, 0x00, 0x06, 0x00, 0x08, 0x00, 0x04, 0x00, 0x06, 0x00, 0x00, 0x00,
  0x00, 0x00, 0x80, 0x3f, 0x01, 0x00, 0x00, 0x00, 0x18, 0x00, 0x00, 0x00,
  0x01, 0x00, 0x00, 0x00, 0x17, 0x00, 0x00, 0x00, 0xf6, 0xfd, 0xff, 0xff,
  0x14, 0x00, 0x00, 0x00, 0x00, 0x00, 0x00, 0x08, 0x10, 0x00, 0x00, 0x00,
  0x14, 0x00, 0x00, 0x00, 0x04, 0x00, 0x00, 0x00, 0xf8, 0xe9, 0xff, 0xff,
  0x01, 0x00, 0x00, 0x00, 0x17, 0x00, 0x00, 0x00, 0x03, 0x00, 0x00, 0x00,
  0x16, 0x00, 0x00, 0x00, 0x06, 0x00, 0x00, 0x00, 0x05, 0x00, 0x00, 0x00,
  0xce, 0xfd, 0xff, 0xff, 0x08, 0x00, 0x00, 0x00, 0x0c, 0x00, 0x00, 0x00,
  0x01, 0x00, 0x00, 0x00, 0x16, 0x00, 0x00, 0x00, 0x02, 0x00, 0x00, 0x00,
  0x15, 0x00, 0x00, 0x00, 0x04, 0x00, 0x00, 0x00, 0x00, 0x00, 0x0a, 0x00,
  0x10, 0x00, 0x0c, 0x00, 0x08, 0x00, 0x04, 0x00, 0x0a, 0x00, 0x00, 0x00,
  0x0c, 0x00, 0x00, 0x00, 0x10, 0x00, 0x00, 0x00, 0x03, 0x00, 0x00, 0x00,
  0x01, 0x00, 0x00, 0x00, 0x15, 0x00, 0x00, 0x00, 0x02, 0x00, 0x00, 0x00,
  0x14, 0x00, 0x00, 0x00, 0x03, 0x00, 0x00, 0x00, 0x1e, 0xfe, 0xff, 0xff,
  0x08, 0x00, 0x00, 0x00, 0x0c, 0x00, 0x00, 0x00, 0x01, 0x00, 0x00, 0x00,
  0x14, 0x00, 0x00, 0x00, 0x02, 0x00, 0x00, 0x00, 0x13, 0x00, 0x00, 0x00,
  0x02, 0x00, 0x00, 0x00, 0x9a, 0xfe, 0xff, 0xff, 0x14, 0x00, 0x00, 0x00,
  0x00, 0x00, 0x00, 0x05, 0x24, 0x00, 0x00, 0x00, 0x28, 0x00, 0x00, 0x00,
  0x02, 0x00, 0x00, 0x00, 0xea, 0xfe, 0xff, 0xff, 0x01, 0x00, 0x00, 0x00,
  0x02, 0x00, 0x00, 0x00, 0x01, 0x00, 0x00, 0x00, 0x02, 0x00, 0x00, 0x00,
  0x00, 0x00, 0x00, 0x01, 0x01, 0x00, 0x00, 0x00, 0x13, 0x00, 0x00, 0x00,
  0x01, 0x00, 0x00, 0x00, 0x12, 0x00, 0x00, 0x00, 0xda, 0xfe, 0xff, 0xff,
  0x14, 0x00, 0x00, 0x00, 0x00, 0x00, 0x00, 0x01, 0x20, 0x00, 0x00, 0x00,
  0x24, 0x00, 0x00, 0x00, 0x01, 0x00, 0x00, 0x00, 0x7c, 0xff, 0xff, 0xff,
  0x00, 0x00, 0x00, 0x01, 0x01, 0x00, 0x00, 0x00, 0x01, 0x00, 0x00, 0x00,
  0x00, 0x00, 0x00, 0x01, 0x01, 0x00, 0x00, 0x00, 0x12, 0x00, 0x00, 0x00,
  0x03, 0x00, 0x00, 0x00, 0x11, 0x00, 0x00, 0x00, 0x08, 0x00, 0x00, 0x00,
  0x07, 0x00, 0x00, 0x00, 0x1e, 0xff, 0xff, 0xff, 0x14, 0x00, 0x00, 0x00,
  0x00, 0x00, 0x00, 0x05, 0x24, 0x00, 0x00, 0x00, 0x28, 0x00, 0x00, 0x00,
  0x02, 0x00, 0x00, 0x00, 0x6e, 0xff, 0xff, 0xff, 0x01, 0x00, 0x00, 0x00,
  0x02, 0x00, 0x00, 0x00, 0x01, 0x00, 0x00, 0x00, 0x02, 0x00, 0x00, 0x00,
  0x00, 0x00, 0x00, 0x01, 0x01, 0x00, 0x00, 0x00, 0x11, 0x00, 0x00, 0x00,
  0x01, 0x00, 0x00, 0x00, 0x10, 0x00, 0x00, 0x00, 0x5e, 0xff, 0xff, 0xff,
  0x20, 0x00, 0x00, 0x00, 0x00, 0x00, 0x00, 0x01, 0x2c, 0x00, 0x00, 0x00,
  0x30, 0x00, 0x00, 0x00, 0x01, 0x00, 0x00, 0x00, 0x0c, 0x00, 0x14, 0x00,
  0x13, 0x00, 0x0c, 0x00, 0x08, 0x00, 0x07, 0x00, 0x0c, 0x00, 0x00, 0x00,
  0x00, 0x00, 0x00, 0x01, 0x01, 0x00, 0x00, 0x00, 0x01, 0x00, 0x00, 0x00,
  0x00, 0x00, 0x00, 0x01, 0x01, 0x00, 0x00, 0x00, 0x10, 0x00, 0x00, 0x00,
  0x03, 0x00, 0x00, 0x00, 0x0f, 0x00, 0x00, 0x00, 0x0a, 0x00, 0x00, 0x00,
  0x09, 0x00, 0x00, 0x00, 0xae, 0xff, 0xff, 0xff, 0x24, 0x00, 0x00, 0x00,
  0x00, 0x00, 0x00, 0x05, 0x34, 0x00, 0x00, 0x00, 0x38, 0x00, 0x00, 0x00,
  0x02, 0x00, 0x00, 0x00, 0x00, 0x00, 0x0e, 0x00, 0x18, 0x00, 0x17, 0x00,
  0x10, 0x00, 0x0c, 0x00, 0x08, 0x00, 0x04, 0x00, 0x0e, 0x00, 0x00, 0x00,
  0x01, 0x00, 0x00, 0x00, 0x02, 0x00, 0x00, 0x00, 0x01, 0x00, 0x00, 0x00,
  0x02, 0x00, 0x00, 0x00, 0x00, 0x00, 0x00, 0x01, 0x01, 0x00, 0x00, 0x00,
  0x0f, 0x00, 0x00, 0x00, 0x01, 0x00, 0x00, 0x00, 0x0e, 0x00, 0x00, 0x00,
  0x00, 0x00, 0x0e, 0x00, 0x18, 0x00, 0x14, 0x00, 0x10, 0x00, 0x0c, 0x00,
  0x0b, 0x00, 0x04, 0x00, 0x0e, 0x00, 0x00, 0x00, 0x20, 0x00, 0x00, 0x00,
  0x00, 0x00, 0x00, 0x01, 0x28, 0x00, 0x00, 0x00, 0x2c, 0x00, 0x00, 0x00,
  0x01, 0x00, 0x00, 0x00, 0x0c, 0x00, 0x10, 0x00, 0x00, 0x00, 0x0c, 0x00,
  0x08, 0x00, 0x07, 0x00, 0x0c, 0x00, 0x00, 0x00, 0x00, 0x00, 0x00, 0x01,
  0x01, 0x00, 0x00, 0x00, 0x01, 0x00, 0x00, 0x00, 0x01, 0x00, 0x00, 0x00,
  0x0e, 0x00, 0x00, 0x00, 0x03, 0x00, 0x00, 0x00, 0x0d, 0x00, 0x00, 0x00,
  0x0c, 0x00, 0x00, 0x00, 0x0b, 0x00, 0x00, 0x00, 0x00, 0x00, 0x0a, 0x00,
  0x0c, 0x00, 0x00, 0x00, 0x08, 0x00, 0x04, 0x00, 0x0a, 0x00, 0x00, 0x00,
  0x08, 0x00, 0x00, 0x00, 0x0c, 0x00, 0x00, 0x00, 0x01, 0x00, 0x00, 0x00,
  0x0d, 0x00, 0x00, 0x00, 0x02, 0x00, 0x00, 0x00, 0x00, 0x00, 0x00, 0x00,
  0x01, 0x00, 0x00, 0x00, 0x01, 0x00, 0x00, 0x00, 0x18, 0x00, 0x00, 0x00,
  0x01, 0x00, 0x00, 0x00, 0x00, 0x00, 0x00, 0x00, 0x19, 0x00, 0x00, 0x00,
  0xd8, 0x13, 0x00, 0x00, 0x5c, 0x13, 0x00, 0x00, 0x00, 0x13, 0x00, 0x00,
  0xa4, 0x12, 0x00, 0x00, 0x60, 0x12, 0x00, 0x00, 0xf0, 0x11, 0x00, 0x00,
  0x7c, 0x11, 0x00, 0x00, 0x60, 0x10, 0x00, 0x00, 0x2c, 0x0f, 0x00, 0x00,
  0x50, 0x0d, 0x00, 0x00, 0x5c, 0x0b, 0x00, 0x00, 0x80, 0x09, 0x00, 0x00,
  0x8c, 0x07, 0x00, 0x00, 0x00, 0x07, 0x00, 0x00, 0xec, 0x05, 0x00, 0x00,
  0x70, 0x05, 0x00, 0x00, 0x74, 0x04, 0x00, 0x00, 0xf8, 0x03, 0x00, 0x00,
  0xfc, 0x02, 0x00, 0x00, 0x80, 0x02, 0x00, 0x00, 0xfc, 0x01, 0x00, 0x00,
  0x80, 0x01, 0x00, 0x00, 0xfc, 0x00, 0x00, 0x00, 0x68, 0x00, 0x00, 0x00,
  0x04, 0x00, 0x00, 0x00, 0xa2, 0xec, 0xff, 0xff, 0x00, 0x00, 0x00, 0x01,
  0x14, 0x00, 0x00, 0x00, 0x30, 0x00, 0x00, 0x00, 0x19, 0x00, 0x00, 0x00,
  0x00, 0x00, 0x00, 0x09, 0x3c, 0x00, 0x00, 0x00, 0x8c, 0xec, 0xff, 0xff,
  0x08, 0x00, 0x00, 0x00, 0x10, 0x00, 0x00, 0x00, 0x01, 0x00, 0x00, 0x00,
  0x80, 0xff, 0xff, 0xff, 0xff, 0xff, 0xff, 0xff, 0x01, 0x00, 0x00, 0x00,
  0x00, 0x00, 0x80, 0x3b, 0x11, 0x00, 0x00, 0x00, 0x50, 0x61, 0x72, 0x74,
  0x69, 0x74, 0x69, 0x6f, 0x6e, 0x65, 0x64, 0x43, 0x61, 0x6c, 0x6c, 0x3a,
  0x30, 0x00, 0x00, 0x00, 0x02, 0x00, 0x00, 0x00, 0x01, 0x00, 0x00, 0x00,
  0x05, 0x00, 0x00, 0x00, 0x02, 0xed, 0xff, 0xff, 0x00, 0x00, 0x00, 0x01,
  0x14, 0x00, 0x00, 0x00, 0x34, 0x00, 0x00, 0x00, 0x18, 0x00, 0x00, 0x00,
  0x00, 0x00, 0x00, 0x09, 0x6c, 0x00, 0x00, 0x00, 0xec, 0xec, 0xff, 0xff,
  0x08, 0x00, 0x00, 0x00, 0x14, 0x00, 0x00, 0x00, 0x01, 0x00, 0x00, 0x00,
  0x0c, 0x00, 0x00, 0x00, 0x00, 0x00, 0x00, 0x00, 0x00, 0x00, 0x00, 0x00,
  0x01, 0x00, 0x00, 0x00, 0x28, 0xab, 0x9e, 0x3d, 0x3e, 0x00, 0x00, 0x00,
  0x6d, 0x6f, 0x64, 0x65, 0x6c, 0x2f, 0x74, 0x66, 0x2e, 0x6c, 0x69, 0x6e,
  0x61, 0x6c, 0x67, 0x2e, 0x6d, 0x61, 0x74, 0x6d, 0x75, 0x6c, 0x2f, 0x4d,
  0x61, 0x74, 0x4d, 0x75, 0x6c, 0x3b, 0x6d, 0x6f, 0x64, 0x65, 0x6c, 0x2f,
  0x74, 0x66, 0x2e, 0x5f, 0x5f, 0x6f, 0x70, 0x65, 0x72, 0x61, 0x74, 0x6f,
  0x72, 0x73, 0x5f, 0x5f, 0x2e, 0x61, 0x64, 0x64, 0x2f, 0x41, 0x64, 0x64,
  0x56, 0x32, 0x00, 0x00, 0x02, 0x00, 0x00, 0x00, 0x01, 0x00, 0x00, 0x00,
  0x05, 0x00, 0x00, 0x00, 0x92, 0xed, 0xff, 0xff, 0x00, 0x00, 0x00, 0x01,
  0x14, 0x00, 0x00, 0x00, 0x34, 0x00, 0x00, 0x00, 0x17, 0x00, 0x00, 0x00,
  0x00, 0x00, 0x00, 0x09, 0x5c, 0x00, 0x00, 0x00, 0x7c, 0xed, 0xff, 0xff,
  0x08, 0x00, 0x00, 0x00, 0x14, 0x00, 0x00, 0x00, 0x01, 0x00, 0x00, 0x00,
  0x80, 0xff, 0xff, 0xff, 0xff, 0xff, 0xff, 0xff, 0x00, 0x00, 0x00, 0x00,
  0x01, 0x00, 0x00, 0x00, 0xad, 0x41, 0xb5, 0x3d, 0x2e, 0x00, 0x00, 0x00,
  0x6d, 0x6f, 0x64, 0x65, 0x6c, 0x2f, 0x66, 0x6c, 0x61, 0x74, 0x74, 0x65,
  0x6e, 0x2f, 0x52, 0x65, 0x73, 0x68, 0x61, 0x70, 0x65, 0x3b, 0x6d, 0x6f,
  0x64, 0x65, 0x6c, 0x2f, 0x74, 0x66, 0x2e, 0x72, 0x65, 0x73, 0x68, 0x61,
  0x70, 0x65, 0x2f, 0x52, 0x65, 0x73, 0x68, 0x61, 0x70, 0x65, 0x00, 0x00,
  0x02, 0x00, 0x00, 0x00, 0x01, 0x00, 0x00, 0x00, 0xd0, 0x00, 0x00, 0x00,
  0x12, 0xee, 0xff, 0xff, 0x00, 0x00, 0x00, 0x01, 0x14, 0x00, 0x00, 0x00,
  0x30, 0x00, 0x00, 0x00, 0x16, 0x00, 0x00, 0x00, 0x00, 0x00, 0x00, 0x09,
  0x50, 0x00, 0x00, 0x00, 0xfc, 0xed, 0xff, 0xff, 0x08, 0x00, 0x00, 0x00,
  0x10, 0x00, 0x00, 0x00, 0x01, 0x00, 0x00, 0x00, 0x80, 0xff, 0xff, 0xff,
  0xff, 0xff, 0xff, 0xff, 0x01, 0x00, 0x00, 0x00, 0xad, 0x41, 0xb5, 0x3d,
  0x26, 0x00, 0x00, 0x00, 0x6d, 0x6f, 0x64, 0x65, 0x6c, 0x2f, 0x74, 0x66,
  0x2e, 0x63, 0x6f, 0x6d, 0x70, 0x61, 0x74, 0x2e, 0x76, 0x31, 0x2e, 0x74,
  0x72, 0x61, 0x6e, 0x73, 0x70, 0x6f, 0x73, 0x65, 0x2f, 0x74, 0x72, 0x61,
  0x6e, 0x73, 0x70, 0x6f, 0x73, 0x65, 0x00, 0x00, 0x03, 0x00, 0x00, 0x00,
  0x01, 0x00, 0x00, 0x00, 0x10, 0x00, 0x00, 0x00, 0x0d, 0x00, 0x00, 0x00,
  0x8a, 0xee, 0xff, 0xff, 0x00, 0x00, 0x00, 0x01, 0x14, 0x00, 0x00, 0x00,
  0x34, 0x00, 0x00, 0x00, 0x15, 0x00, 0x00, 0x00, 0x00, 0x00, 0x00, 0x09,
  0x58, 0x00, 0x00, 0x00, 0x74, 0xee, 0xff, 0xff, 0x08, 0x00, 0x00, 0x00,
  0x14, 0x00, 0x00, 0x00, 0x01, 0x00, 0x00, 0x00, 0x80, 0xff, 0xff, 0xff,
  0xff, 0xff, 0xff, 0xff, 0x00, 0x00, 0x00, 0x00, 0x01, 0x00, 0x00, 0x00,
  0xad, 0x41, 0xb5, 0x3d, 0x2b, 0x00, 0x00, 0x00, 0x6d, 0x6f, 0x64, 0x65,
  0x6c, 0x2f, 0x74, 0x66, 0x2e, 0x6e, 0x6e, 0x2e, 0x6d, 0x61, 0x78, 0x5f,
  0x70, 0x6f, 0x6f, 0x6c, 0x31, 0x64, 0x5f, 0x32, 0x2f, 0x4d, 0x61, 0x78,
  0x50, 0x6f, 0x6f, 0x6c, 0x31, 0x64, 0x2f, 0x53, 0x71, 0x75, 0x65, 0x65,
  0x7a, 0x65, 0x31, 0x00, 0x03, 0x00, 0x00, 0x00, 0x01, 0x00, 0x00, 0x00,
  0x0d, 0x00, 0x00, 0x00, 0x10, 0x00, 0x00, 0x00, 0x0a, 0xef, 0xff, 0xff,
  0x00, 0x00, 0x00, 0x01, 0x14, 0x00, 0x00, 0x00, 0x30, 0x00, 0x00, 0x00,
  0x14, 0x00, 0x00, 0x00, 0x00, 0x00, 0x00, 0x09, 0x4c, 0x00, 0x00, 0x00,
  0xf4, 0xee, 0xff, 0xff, 0x08, 0x00, 0x00, 0x00, 0x10, 0x00, 0x00, 0x00,
  0x01, 0x00, 0x00, 0x00, 0x80, 0xff, 0xff, 0xff, 0xff, 0xff, 0xff, 0xff,
  0x01, 0x00, 0x00, 0x00, 0xad, 0x41, 0xb5, 0x3d, 0x22, 0x00, 0x00, 0x00,
  0x6d, 0x6f, 0x64, 0x65, 0x6c, 0x2f, 0x74, 0x66, 0x2e, 0x6e, 0x6e, 0x2e,
  0x6d, 0x61, 0x78, 0x5f, 0x70, 0x6f, 0x6f, 0x6c, 0x31, 0x64, 0x5f, 0x32,
  0x2f, 0x4d, 0x61, 0x78, 0x50, 0x6f, 0x6f, 0x6c, 0x31, 0x64, 0x00, 0x00,
  0x04, 0x00, 0x00, 0x00, 0x01, 0x00, 0x00, 0x00, 0x01, 0x00, 0x00, 0x00,
  0x0d, 0x00, 0x00, 0x00, 0x10, 0x00, 0x00, 0x00, 0x82, 0xef, 0xff, 0xff,
  0x00, 0x00, 0x00, 0x01, 0x14, 0x00, 0x00, 0x00, 0x34, 0x00, 0x00, 0x00,
  0x13, 0x00, 0x00, 0x00, 0x00, 0x00, 0x00, 0x09, 0xcc, 0x00, 0x00, 0x00,
  0x6c, 0xef, 0xff, 0xff, 0x08, 0x00, 0x00, 0x00, 0x14, 0x00, 0x00, 0x00,
  0x01, 0x00, 0x00, 0x00, 0x80, 0xff, 0xff, 0xff, 0xff, 0xff, 0xff, 0xff,
  0x00, 0x00, 0x00, 0x00, 0x01, 0x00, 0x00, 0x00, 0xad, 0x41, 0xb5, 0x3d,
  0x9d, 0x00, 0x00, 0x00, 0x6d, 0x6f, 0x64, 0x65, 0x6c, 0x2f, 0x74, 0x66,
  0x2e, 0x6e, 0x6e, 0x2e, 0x72, 0x65, 0x6c, 0x75, 0x5f, 0x32, 0x2f, 0x52,
  0x65, 0x6c, 0x75, 0x3b, 0x6d, 0x6f, 0x64, 0x65, 0x6c, 0x2f, 0x74, 0x66,
  0x2e, 0x6d, 0x61, 0x74, 0x68, 0x2e, 0x61, 0x64, 0x64, 0x5f, 0x32, 0x2f,
  0x41, 0x64, 0x64, 0x3b, 0x6d, 0x6f, 0x64, 0x65, 0x6c, 0x2f, 0x74, 0x66,
  0x2e, 0x63, 0x6f, 0x6d, 0x70, 0x61, 0x74, 0x2e, 0x76, 0x31, 0x2e, 0x6e,
  0x6e, 0x2e, 0x63, 0x6f, 0x6e, 0x76, 0x31, 0x64, 0x5f, 0x32, 0x2f, 0x63,
  0x6f, 0x6e, 0x76, 0x31, 0x64, 0x2f, 0x53, 0x71, 0x75, 0x65, 0x65, 0x7a,
  0x65, 0x3b, 0x6d, 0x6f, 0x64, 0x65, 0x6c, 0x2f, 0x74, 0x66, 0x2e, 0x6d,
  0x61, 0x74, 0x68, 0x2e, 0x61, 0x64, 0x64, 0x5f, 0x32, 0x2f, 0x41, 0x64,
  0x64, 0x2f, 0x79, 0x3b, 0x6d, 0x6f, 0x64, 0x65, 0x6c, 0x2f, 0x74, 0x66,
  0x2e, 0x63, 0x6f, 0x6d, 0x70, 0x61, 0x74, 0x2e, 0x76, 0x31, 0x2e, 0x6e,
  0x6e, 0x2e, 0x63, 0x6f, 0x6e, 0x76, 0x31, 0x64, 0x5f, 0x32, 0x2f, 0x63,
  0x6f, 0x6e, 0x76, 0x31, 0x64, 0x00, 0x00, 0x00, 0x04, 0x00, 0x00, 0x00,
  0x01, 0x00, 0x00, 0x00, 0x01, 0x00, 0x00, 0x00, 0x1a, 0x00, 0x00, 0x00,
  0x10, 0x00, 0x00, 0x00, 0x7a, 0xf0, 0xff, 0xff, 0x00, 0x00, 0x00, 0x01,
  0x14, 0x00, 0x00, 0x00, 0x30, 0x00, 0x00, 0x00, 0x12, 0x00, 0x00, 0x00,
  0x00, 0x00, 0x00, 0x09, 0x4c, 0x00, 0x00, 0x00, 0x64, 0xf0, 0xff, 0xff,
  0x08, 0x00, 0x00, 0x00, 0x10, 0x00, 0x00, 0x00, 0x01, 0x00, 0x00, 0x00,
  0x80, 0xff, 0xff, 0xff, 0xff, 0xff, 0xff, 0xff, 0x01, 0x00, 0x00, 0x00,
  0x71, 0x97, 0x76, 0x3d, 0x22, 0x00, 0x00, 0x00, 0x6d, 0x6f, 0x64, 0x65,
  0x6c, 0x2f, 0x74, 0x66, 0x2e, 0x6e, 0x6e, 0x2e, 0x6d, 0x61, 0x78, 0x5f,
  0x70, 0x6f, 0x6f, 0x6c, 0x31, 0x64, 0x5f, 0x31, 0x2f, 0x4d, 0x61, 0x78,
  0x50, 0x6f, 0x6f, 0x6c, 0x31, 0x64, 0x00, 0x00, 0x04, 0x00, 0x00, 0x00,
  0x01, 0x00, 0x00, 0x00, 0x01, 0x00, 0x00, 0x00, 0x1c, 0x00, 0x00, 0x00,
  0x20, 0x00, 0x00, 0x00, 0xf2, 0xf0, 0xff, 0xff, 0x00, 0x00, 0x00, 0x01,
  0x14, 0x00, 0x00, 0x00, 0x34, 0x00, 0x00, 0x00, 0x11, 0x00, 0x00, 0x00,
  0x00, 0x00, 0x00, 0x09, 0xcc, 0x00, 0x00, 0x00, 0xdc, 0xf0, 0xff, 0xff,
  0x08, 0x00, 0x00, 0x00, 0x14, 0x00, 0x00, 0x00, 0x01, 0x00, 0x00, 0x00,
  0x80, 0xff, 0xff, 0xff, 0xff, 0xff, 0xff, 0xff, 0x00, 0x00, 0x00, 0x00,
  0x01, 0x00, 0x00, 0x00, 0x71, 0x97, 0x76, 0x3d, 0x9d, 0x00, 0x00, 0x00,
  0x6d, 0x6f, 0x64, 0x65, 0x6c, 0x2f, 0x74, 0x66, 0x2e, 0x6e, 0x6e, 0x2e,
  0x72, 0x65, 0x6c, 0x75, 0x5f, 0x31, 0x2f, 0x52, 0x65, 0x6c, 0x75, 0x3b,
  0x6d, 0x6f, 0x64, 0x65, 0x6c, 0x2f, 0x74, 0x66, 0x2e, 0x6d, 0x61, 0x74,
  0x68, 0x2e, 0x61, 0x64, 0x64, 0x5f, 0x31, 0x2f, 0x41, 0x64, 0x64, 0x3b,
  0x6d, 0x6f, 0x64, 0x65, 0x6c, 0x2f, 0x74, 0x66, 0x2e, 0x63, 0x6f, 0x6d,
  0x70, 0x61, 0x74, 0x2e, 0x76, 0x31, 0x2e, 0x6e, 0x6e, 0x2e, 0x63, 0x6f,
  0x6e, 0x76, 0x31, 0x64, 0x5f, 0x31, 0x2f, 0x63, 0x6f, 0x6e, 0x76, 0x31,
  0x64, 0x2f, 0x53, 0x71, 0x75, 0x65, 0x65, 0x7a, 0x65, 0x3b, 0x6d, 0x6f,
  0x64, 0x65, 0x6c, 0x2f, 0x74, 0x66, 0x2e, 0x6d, 0x61, 0x74, 0x68, 0x2e,
  0x61, 0x64, 0x64, 0x5f, 0x31, 0x2f, 0x41, 0x64, 0x64, 0x2f, 0x79, 0x3b,
  0x6d, 0x6f, 0x64, 0x65, 0x6c, 0x2f, 0x74, 0x66, 0x2e, 0x63, 0x6f, 0x6d,
  0x70, 0x61, 0x74, 0x2e, 0x76, 0x31, 0x2e, 0x6e, 0x6e, 0x2e, 0x63, 0x6f,
  0x6e, 0x76, 0x31, 0x64, 0x5f, 0x31, 0x2f, 0x63, 0x6f, 0x6e, 0x76, 0x31,
  0x64, 0x00, 0x00, 0x00, 0x04, 0x00, 0x00, 0x00, 0x01, 0x00, 0x00, 0x00,
  0x01, 0x00, 0x00, 0x00, 0x39, 0x00, 0x00, 0x00, 0x20, 0x00, 0x00, 0x00,
  0xea, 0xf1, 0xff, 0xff, 0x00, 0x00, 0x00, 0x01, 0x14, 0x00, 0x00, 0x00,
  0x30, 0x00, 0x00, 0x00, 0x10, 0x00, 0x00, 0x00, 0x00, 0x00, 0x00, 0x09,
  0x4c, 0x00, 0x00, 0x00, 0xd4, 0xf1, 0xff, 0xff, 0x08, 0x00, 0x00, 0x00,
  0x10, 0x00, 0x00, 0x00, 0x01, 0x00, 0x00, 0x00, 0x80, 0xff, 0xff, 0xff,
  0xff, 0xff, 0xff, 0xff, 0x01, 0x00, 0x00, 0x00, 0x9e, 0x73, 0x32, 0x3d,
  0x20, 0x00, 0x00, 0x00, 0x6d, 0x6f, 0x64, 0x65, 0x6c, 0x2f, 0x74, 0x66,
  0x2e, 0x6e, 0x6e, 0x2e, 0x6d, 0x61, 0x78, 0x5f, 0x70, 0x6f, 0x6f, 0x6c,
  0x31, 0x64, 0x2f, 0x4d, 0x61, 0x78, 0x50, 0x6f, 0x6f, 0x6c, 0x31, 0x64,
  0x00, 0x00, 0x00, 0x00, 0x04, 0x00, 0x00, 0x00, 0x01, 0x00, 0x00, 0x00,
  0x01, 0x00, 0x00, 0x00, 0x3b, 0x00, 0x00, 0x00, 0x20, 0x00, 0x00, 0x00,
  0x62, 0xf2, 0xff, 0xff, 0x00, 0x00, 0x00, 0x01, 0x14, 0x00, 0x00, 0x00,
  0x30, 0x00, 0x00, 0x00, 0x0f, 0x00, 0x00, 0x00, 0x00, 0x00, 0x00, 0x09,
  0xe4, 0x00, 0x00, 0x00, 0x4c, 0xf2, 0xff, 0xff, 0x08, 0x00, 0x00, 0x00,
  0x10, 0x00, 0x00, 0x00, 0x01, 0x00, 0x00, 0x00, 0x80, 0xff, 0xff, 0xff,
  0xff, 0xff, 0xff, 0xff, 0x01, 0x00, 0x00, 0x00, 0x9e, 0x73, 0x32, 0x3d,
  0xb9, 0x00, 0x00, 0x00, 0x6d, 0x6f, 0x64, 0x65, 0x6c, 0x2f, 0x74, 0x66,
  0x2e, 0x6e, 0x6e, 0x2e, 0x72, 0x65, 0x6c, 0x75, 0x2f, 0x52, 0x65, 0x6c,
  0x75, 0x3b, 0x6d, 0x6f, 0x64, 0x65, 0x6c, 0x2f, 0x74, 0x66, 0x2e, 0x6d,
  0x61, 0x74, 0x68, 0x2e, 0x61, 0x64, 0x64, 0x2f, 0x41, 0x64, 0x64, 0x3b,
  0x6d, 0x6f, 0x64, 0x65, 0x6c, 0x2f, 0x74, 0x66, 0x2e, 0x63, 0x6f, 0x6d,
  0x70, 0x61, 0x74, 0x2e, 0x76, 0x31, 0x2e, 0x6e, 0x6e, 0x2e, 0x63, 0x6f,
  0x6e, 0x76, 0x31, 0x64, 0x2f, 0x63, 0x6f, 0x6e, 0x76, 0x31, 0x64, 0x2f,
  0x53, 0x71, 0x75, 0x65, 0x65, 0x7a, 0x65, 0x3b, 0x6d, 0x6f, 0x64, 0x65,
  0x6c, 0x2f, 0x74, 0x66, 0x2e, 0x6d, 0x61, 0x74, 0x68, 0x2e, 0x61, 0x64,
  0x64, 0x2f, 0x41, 0x64, 0x64, 0x2f, 0x79, 0x3b, 0x6d, 0x6f, 0x64, 0x65,
  0x6c, 0x2f, 0x74, 0x66, 0x2e, 0x63, 0x6f, 0x6d, 0x70, 0x61, 0x74, 0x2e,
  0x76, 0x31, 0x2e, 0x6e, 0x6e, 0x2e, 0x63, 0x6f, 0x6e, 0x76, 0x31, 0x64,
  0x5f, 0x31, 0x2f, 0x63, 0x6f, 0x6e, 0x76, 0x31, 0x64, 0x3b, 0x6d, 0x6f,
  0x64, 0x65, 0x6c, 0x2f, 0x74, 0x66, 0x2e, 0x63, 0x6f, 0x6d, 0x70, 0x61,
  0x74, 0x2e, 0x76, 0x31, 0x2e, 0x6e, 0x6e, 0x2e, 0x63, 0x6f, 0x6e, 0x76,
  0x31, 0x64, 0x2f, 0x63, 0x6f, 0x6e, 0x76, 0x31, 0x64, 0x00, 0x00, 0x00,
  0x04, 0x00, 0x00, 0x00, 0x01, 0x00, 0x00, 0x00, 0x01, 0x00, 0x00, 0x00,
  0x77, 0x00, 0x00, 0x00, 0x20, 0x00, 0x00, 0x00, 0x72, 0xf3, 0xff, 0xff,
  0x00, 0x00, 0x00, 0x01, 0x14, 0x00, 0x00, 0x00, 0x34, 0x00, 0x00, 0x00,
  0x0e, 0x00, 0x00, 0x00, 0x00, 0x00, 0x00, 0x09, 0x5c, 0x00, 0x00, 0x00,
  0x5c, 0xf3, 0xff, 0xff, 0x08, 0x00, 0x00, 0x00, 0x14, 0x00, 0x00, 0x00,
  0x01, 0x00, 0x00, 0x00, 0x80, 0xff, 0xff, 0xff, 0xff, 0xff, 0xff, 0xff,
  0x00, 0x00, 0x00, 0x00, 0x01, 0x00, 0x00, 0x00, 0x81, 0x80, 0x80, 0x3b,
  0x2f, 0x00, 0x00, 0x00, 0x6d, 0x6f, 0x64, 0x65, 0x6c, 0x2f, 0x74, 0x66,
  0x2e, 0x63, 0x6f, 0x6d, 0x70, 0x61, 0x74, 0x2e, 0x76, 0x31, 0x2e, 0x6e,
  0x6e, 0x2e, 0x63, 0x6f, 0x6e, 0x76, 0x31, 0x64, 0x2f, 0x63, 0x6f, 0x6e,
  0x76, 0x31, 0x64, 0x2f, 0x45, 0x78, 0x70, 0x61, 0x6e, 0x64, 0x44, 0x69,
  0x6d, 0x73, 0x31, 0x00, 0x04, 0x00, 0x00, 0x00, 0x01, 0x00, 0x00, 0x00,
  0x01, 0x00, 0x00, 0x00, 0x77, 0x00, 0x00, 0x00, 0x06, 0x00, 0x00, 0x00,
  0xfa, 0xf3, 0xff, 0xff, 0x00, 0x00, 0x00, 0x01, 0x14, 0x00, 0x00, 0x00,
  0xa8, 0x01, 0x00, 0x00, 0x0d, 0x00, 0x00, 0x00, 0x00, 0x00, 0x00, 0x09,
  0xc4, 0x01, 0x00, 0x00, 0xe4, 0xf3, 0xff, 0xff, 0x08, 0x00, 0x00, 0x00,
  0x0c, 0x01, 0x00, 0x00, 0x20, 0x00, 0x00, 0x00, 0x00, 0x00, 0x00, 0x00,
  0x00, 0x00, 0x00, 0x00, 0x00, 0x00, 0x00, 0x00, 0x00, 0x00, 0x00, 0x00,
  0x00, 0x00, 0x00, 0x00, 0x00, 0x00, 0x00, 0x00, 0x00, 0x00, 0x00, 0x00,
  0x00, 0x00, 0x00, 0x00, 0x00, 0x00, 0x00, 0x00, 0x00, 0x00, 0x00, 0x00,
  0x00, 0x00, 0x00, 0x00, 0x00, 0x00, 0x00, 0x00, 0x00, 0x00, 0x00, 0x00,
  0x00, 0x00, 0x00, 0x00, 0x00, 0x00, 0x00, 0x00, 0x00, 0x00, 0x00, 0x00,
  0x00, 0x00, 0x00, 0x00, 0x00, 0x00, 0x00, 0x00, 0x00, 0x00, 0x00, 0x00,
  0x00, 0x00, 0x00, 0x00, 0x00, 0x00, 0x00, 0x00, 0x00, 0x00, 0x00, 0x00,
  0x00, 0x00, 0x00, 0x00, 0x00, 0x00, 0x00, 0x00, 0x00, 0x00, 0x00, 0x00,
  0x00, 0x00, 0x00, 0x00, 0x00, 0x00, 0x00, 0x00, 0x00, 0x00, 0x00, 0x00,
  0x00, 0x00, 0x00, 0x00, 0x00, 0x00, 0x00, 0x00, 0x00, 0x00, 0x00, 0x00,
  0x00, 0x00, 0x00, 0x00, 0x00, 0x00, 0x00, 0x00, 0x00, 0x00, 0x00, 0x00,
  0x00, 0x00, 0x00, 0x00, 0x00, 0x00, 0x00, 0x00, 0x00, 0x00, 0x00, 0x00,
  0x00, 0x00, 0x00, 0x00, 0x00, 0x00, 0x00, 0x00, 0x00, 0x00, 0x00, 0x00,
  0x00, 0x00, 0x00, 0x00, 0x00, 0x00, 0x00, 0x00, 0x00, 0x00, 0x00, 0x00,
  0x00, 0x00, 0x00, 0x00, 0x00, 0x00, 0x00, 0x00, 0x00, 0x00, 0x00, 0x00,
  0x00, 0x00, 0x00, 0x00, 0x00, 0x00, 0x00, 0x00, 0x00, 0x00, 0x00, 0x00,
  0x00, 0x00, 0x00, 0x00, 0x00, 0x00, 0x00, 0x00, 0x00, 0x00, 0x00, 0x00,
  0x00, 0x00, 0x00, 0x00, 0x00, 0x00, 0x00, 0x00, 0x00, 0x00, 0x00, 0x00,
  0x00, 0x00, 0x00, 0x00, 0x00, 0x00, 0x00, 0x00, 0x00, 0x00, 0x00, 0x00,
  0x00, 0x00, 0x00, 0x00, 0x00, 0x00, 0x00, 0x00, 0x00, 0x00, 0x00, 0x00,
  0x00, 0x00, 0x00, 0x00, 0x00, 0x00, 0x00, 0x00, 0x00, 0x00, 0x00, 0x00,
  0x00, 0x00, 0x00, 0x00, 0x20, 0x00, 0x00, 0x00, 0xe8, 0x10, 0xa8, 0x3c,
  0x1c, 0x53, 0x85, 0x3c, 0x48, 0xe0, 0xe1, 0x3c, 0x5a, 0x41, 0x87, 0x3c,
  0x26, 0x58, 0xcc, 0x3c, 0x5f, 0xdd, 0x11, 0x3d, 0xaa, 0xb9, 0xbe, 0x3c,
  0x8d, 0x73, 0xa7, 0x3c, 0x3f, 0x84, 0x88, 0x3c, 0xec, 0x0b, 0xc3, 0x3c,
  0x9a, 0xe3, 0xbf, 0x3c, 0xad, 0xf7, 0x8d, 0x3c, 0xa8, 0xc0, 0xe4, 0x3c,
  0x93, 0xc5, 0xee, 0x3c, 0xd1, 0x10, 0x00, 0x3d, 0xe9, 0x3b, 0x41, 0x3d,
  0xe4, 0xb9, 0xd7, 0x3c, 0x98, 0x65, 0xde, 0x3c, 0x6e, 0x1a, 0xc9, 0x3c,
  0x5e, 0x1c, 0xbe, 0x3c, 0xbc, 0xd8, 0xe3, 0x3c, 0xdb, 0x76, 0x9d, 0x3c,
  0x0f, 0xfb, 0x32, 0x3d, 0x55, 0x4d, 0x7e, 0x3c, 0x5d, 0x71, 0xbf, 0x3c,
  0xa6, 0xa3, 0xdc, 0x3c, 0x3a, 0x0a, 0x0f, 0x3d, 0xf1, 0xf5, 0xc0, 0x3c,
  0x7c, 0xfe, 0xc6, 0x3c, 0xb2, 0xf0, 0x83, 0x3c, 0xf1, 0x71, 0x92, 0x3c,
  0xc1, 0x2e, 0x86, 0x3c, 0x23, 0x00, 0x00, 0x00, 0x6d, 0x6f, 0x64, 0x65,
  0x6c, 0x2f, 0x74, 0x66, 0x2e, 0x63, 0x6f, 0x6d, 0x70, 0x61, 0x74, 0x2e,
  0x76, 0x31, 0x2e, 0x6e, 0x6e, 0x2e, 0x63, 0x6f, 0x6e, 0x76, 0x31, 0x64,
  0x2f, 0x63, 0x6f, 0x6e, 0x76, 0x31, 0x64, 0x00, 0x04, 0x00, 0x00, 0x00,
  0x20, 0x00, 0x00, 0x00, 0x01, 0x00, 0x00, 0x00, 0x05, 0x00, 0x00, 0x00,
  0x06, 0x00, 0x00, 0x00, 0xea, 0xf5, 0xff, 0xff, 0x00, 0x00, 0x00, 0x01,
  0x14, 0x00, 0x00, 0x00, 0xa8, 0x01, 0x00, 0x00, 0x0c, 0x00, 0x00, 0x00,
  0x00, 0x00, 0x00, 0x02, 0xb8, 0x01, 0x00, 0x00, 0xd4, 0xf5, 0xff, 0xff,
  0x08, 0x00, 0x00, 0x00, 0x0c, 0x01, 0x00, 0x00, 0x20, 0x00, 0x00, 0x00,
  0x00, 0x00, 0x00, 0x00, 0x00, 0x00, 0x00, 0x00, 0x00, 0x00, 0x00, 0x00,
  0x00, 0x00, 0x00, 0x00, 0x00, 0x00, 0x00, 0x00, 0x00, 0x00, 0x00, 0x00,
  0x00, 0x00, 0x00, 0x00, 0x00, 0x00, 0x00, 0x00, 0x00, 0x00, 0x00, 0x00,
  0x00, 0x00, 0x00, 0x00, 0x00, 0x00, 0x00, 0x00, 0x00, 0x00, 0x00, 0x00,
  0x00, 0x00, 0x00, 0x00, 0x00, 0x00, 0x00, 0x00, 0x00, 0x00, 0x00, 0x00,
  0x00, 0x00, 0x00, 0x00, 0x00, 0x00, 0x00, 0x00, 0x00, 0x00, 0x00, 0x00,
  0x00, 0x00, 0x00, 0x00, 0x00, 0x00, 0x00, 0x00, 0x00, 0x00, 0x00, 0x00,
  0x00, 0x00, 0x00, 0x00, 0x00, 0x00, 0x00, 0x00, 0x00, 0x00, 0x00, 0x00,
  0x00, 0x00, 0x00, 0x00, 0x00, 0x00, 0x00, 0x00, 0x00, 0x00, 0x00, 0x00,
  0x00, 0x00, 0x00, 0x00, 0x00, 0x00, 0x00, 0x00, 0x00, 0x00, 0x00, 0x00,
  0x00, 0x00, 0x00, 0x00, 0x00, 0x00, 0x00, 0x00, 0x00, 0x00, 0x00, 0x00,
  0x00, 0x00, 0x00, 0x00, 0x00, 0x00, 0x00, 0x00, 0x00, 0x00, 0x00, 0x00,
  0x00, 0x00, 0x00, 0x00, 0x00, 0x00, 0x00, 0x00, 0x00, 0x00, 0x00, 0x00,
  0x00, 0x00, 0x00, 0x00, 0x00, 0x00, 0x00, 0x00, 0x00, 0x00, 0x00, 0x00,
  0x00, 0x00, 0x00, 0x00, 0x00, 0x00, 0x00, 0x00, 0x00, 0x00, 0x00, 0x00,
  0x00, 0x00, 0x00, 0x00, 0x00, 0x00, 0x00, 0x00, 0x00, 0x00, 0x00, 0x00,
  0x00, 0x00, 0x00, 0x00, 0x00, 0x00, 0x00, 0x00, 0x00, 0x00, 0x00, 0x00,
  0x00, 0x00, 0x00, 0x00, 0x00, 0x00, 0x00, 0x00, 0x00, 0x00, 0x00, 0x00,
  0x00, 0x00, 0x00, 0x00, 0x00, 0x00, 0x00, 0x00, 0x00, 0x00, 0x00, 0x00,
  0x00, 0x00, 0x00, 0x00, 0x00, 0x00, 0x00, 0x00, 0x00, 0x00, 0x00, 0x00,
  0x00, 0x00, 0x00, 0x00, 0x00, 0x00, 0x00, 0x00, 0x00, 0x00, 0x00, 0x00,
  0x00, 0x00, 0x00, 0x00, 0x00, 0x00, 0x00, 0x00, 0x20, 0x00, 0x00, 0x00,
  0xa2, 0xb9, 0xa8, 0x38, 0xf5, 0xd8, 0x85, 0x38, 0x0c, 0xc3, 0xe2, 0x38,
  0x24, 0xc9, 0x87, 0x38, 0x4c, 0x25, 0xcd, 0x38, 0xcf, 0x6f, 0x12, 0x39,
  0x24, 0x79, 0xbf, 0x38, 0xa9, 0x1b, 0xa8, 0x38, 0x4d, 0x0d, 0x89, 0x38,
  0xbc, 0xcf, 0xc3, 0x38, 0x3f, 0xa4, 0xc0, 0x38, 0x34, 0x86, 0x8e, 0x38,
  0x4f, 0xa6, 0xe5, 0x38, 0x49, 0xb5, 0xef, 0x38, 0x63, 0x91, 0x00, 0x39,
  0xe8, 0xfd, 0x41, 0x39, 0x77, 0x92, 0xd8, 0x38, 0xde, 0x44, 0xdf, 0x38,
  0x53, 0xe4, 0xc9, 0x38, 0x3a, 0xdb, 0xbe, 0x38, 0x7a, 0xbd, 0xe4, 0x38,
  0xf1, 0x14, 0x9e, 0x38, 0xbe, 0xae, 0x33, 0x39, 0xa3, 0x4c, 0x7f, 0x38,
  0x8f, 0x31, 0xc0, 0x38, 0x28, 0x81, 0xdd, 0x38, 0xd4, 0x99, 0x0f, 0x39,
  0xa9, 0xb7, 0xc1, 0x38, 0x43, 0xc6, 0xc7, 0x38, 0x28, 0x75, 0x84, 0x38,
  0xf7, 0x04, 0x93, 0x38, 0x77, 0xb5, 0x86, 0x38, 0x17, 0x00, 0x00, 0x00,
  0x6d, 0x6f, 0x64, 0x65, 0x6c, 0x2f, 0x74, 0x66, 0x2e, 0x6d, 0x61, 0x74,
  0x68, 0x2e, 0x61, 0x64, 0x64, 0x2f, 0x41, 0x64, 0x64, 0x2f, 0x79, 0x00,
  0x01, 0x00, 0x00, 0x00, 0x20, 0x00, 0x00, 0x00, 0xc2, 0xf7, 0xff, 0xff,
  0x00, 0x00, 0x00, 0x01, 0x14, 0x00, 0x00, 0x00, 0xa4, 0x01, 0x00, 0x00,
  0x0b, 0x00, 0x00, 0x00, 0x00, 0x00, 0x00, 0x09, 0xc4, 0x01, 0x00, 0x00,
  0xac, 0xf7, 0xff, 0xff, 0x08, 0x00, 0x00, 0x00, 0x08, 0x01, 0x00, 0x00,
  0x20, 0x00, 0x00, 0x00, 0x00, 0x00, 0x00, 0x00, 0x00, 0x00, 0x00, 0x00,
  0x00, 0x00, 0x00, 0x00, 0x00, 0x00, 0x00, 0x00, 0x00, 0x00, 0x00, 0x00,
  0x00, 0x00, 0x00, 0x00, 0x00, 0x00, 0x00, 0x00, 0x00, 0x00, 0x00, 0x00,
  0x00, 0x00, 0x00, 0x00, 0x00, 0x00, 0x00, 0x00, 0x00, 0x00, 0x00, 0x00,
  0x00, 0x00, 0x00, 0x00, 0x00, 0x00, 0x00, 0x00, 0x00, 0x00, 0x00, 0x00,
  0x00, 0x00, 0x00, 0x00, 0x00, 0x00, 0x00, 0x00, 0x00, 0x00, 0x00, 0x00,
  0x00, 0x00, 0x00, 0x00, 0x00, 0x00, 0x00, 0x00, 0x00, 0x00, 0x00, 0x00,
  0x00, 0x00, 0x00, 0x00, 0x00, 0x00, 0x00, 0x00, 0x00, 0x00, 0x00, 0x00,
  0x00, 0x00, 0x00, 0x00, 0x00, 0x00, 0x00, 0x00, 0x00, 0x00, 0x00, 0x00,
  0x00, 0x00, 0x00, 0x00, 0x00, 0x00, 0x00, 0x00, 0x00, 0x00, 0x00, 0x00,
  0x00, 0x00, 0x00, 0x00, 0x00, 0x00, 0x00, 0x00, 0x00, 0x00, 0x00, 0x00,
  0x00, 0x00, 0x00, 0x00, 0x00, 0x00, 0x00, 0x00, 0x00, 0x00, 0x00, 0x00,
  0x00, 0x00, 0x00, 0x00, 0x00, 0x00, 0x00, 0x00, 0x00, 0x00, 0x00, 0x00,
  0x00, 0x00, 0x00, 0x00, 0x00, 0x00, 0x00, 0x00, 0x00, 0x00, 0x00, 0x00,
  0x00, 0x00, 0x00, 0x00, 0x00, 0x00, 0x00, 0x00, 0x00, 0x00, 0x00, 0x00,
  0x00, 0x00, 0x00, 0x00, 0x00, 0x00, 0x00, 0x00, 0x00, 0x00, 0x00, 0x00,
  0x00, 0x00, 0x00, 0x00, 0x00, 0x00, 0x00, 0x00, 0x00, 0x00, 0x00, 0x00,
  0x00, 0x00, 0x00, 0x00, 0x00, 0x00, 0x00, 0x00, 0x00, 0x00, 0x00, 0x00,
  0x00, 0x00, 0x00, 0x00, 0x00, 0x00, 0x00, 0x00, 0x00, 0x00, 0x00, 0x00,
  0x00, 0x00, 0x00, 0x00, 0x00, 0x00, 0x00, 0x00, 0x00, 0x00, 0x00, 0x00,
  0x00, 0x00, 0x00, 0x00, 0x00, 0x00, 0x00, 0x00, 0x00, 0x00, 0x00, 0x00,
  0x00, 0x00, 0x00, 0x00, 0x00, 0x00, 0x00, 0x00, 0x20, 0x00, 0x00, 0x00,
  0x81, 0xf5, 0xc8, 0x3a, 0x13, 0x6a, 0xdc, 0x3b, 0xd2, 0x16, 0x73, 0x3b,
  0xa6, 0x66, 0xff, 0x3a, 0x07, 0x39, 0x0d, 0x3b, 0xd3, 0x15, 0x0f, 0x3b,
  0x55, 0x48, 0xb9, 0x3b, 0x28, 0xf8, 0x1a, 0x3b, 0x45, 0x45, 0x0a, 0x3b,
  0x3f, 0xbb, 0x20, 0x3b, 0xc3, 0x44, 0xe5, 0x3a, 0x97, 0xaa, 0x06, 0x3b,
  0xda, 0x4b, 0xec, 0x3a, 0x1a, 0x8e, 0xd6, 0x3a, 0xff, 0xe0, 0xe0, 0x3a,
  0xdc, 0xdf, 0x18, 0x3b, 0x18, 0x8f, 0x49, 0x3b, 0xc3, 0x44, 0x88, 0x3b,
  0xe1, 0x0e, 0x3e, 0x3b, 0x5f, 0xfc, 0x10, 0x3b, 0x93, 0xd5, 0xeb, 0x3a,
  0x5b, 0x45, 0x24, 0x3b, 0x91, 0x84, 0x94, 0x3b, 0x12, 0x81, 0x91, 0x3b,
  0x8e, 0x7d, 0x2f, 0x3b, 0xd1, 0x05, 0x85, 0x3b, 0xa0, 0x19, 0x87, 0x3b,
  0xf3, 0x9f, 0x07, 0x3b, 0x83, 0x3d, 0x6e, 0x3b, 0xa1, 0x21, 0x32, 0x3b,
  0x8e, 0xf0, 0x36, 0x3b, 0x31, 0xb7, 0x61, 0x3b, 0x25, 0x00, 0x00, 0x00,
  0x6d, 0x6f, 0x64, 0x65, 0x6c, 0x2f, 0x74, 0x66, 0x2e, 0x63, 0x6f, 0x6d,
  0x70, 0x61, 0x74, 0x2e, 0x76, 0x31, 0x2e, 0x6e, 0x6e, 0x2e, 0x63, 0x6f,
  0x6e, 0x76, 0x31, 0x64, 0x5f, 0x31, 0x2f, 0x63, 0x6f, 0x6e, 0x76, 0x31,
  0x64, 0x00, 0x00, 0x00, 0x04, 0x00, 0x00, 0x00, 0x20, 0x00, 0x00, 0x00,
  0x01, 0x00, 0x00, 0x00, 0x03, 0x00, 0x00, 0x00, 0x20, 0x00, 0x00, 0x00,
  0xb2, 0xf9, 0xff, 0xff, 0x00, 0x00, 0x00, 0x01, 0x14, 0x00, 0x00, 0x00,
  0xa4, 0x01, 0x00, 0x00, 0x0a, 0x00, 0x00, 0x00, 0x00, 0x00, 0x00, 0x02,
  0xb8, 0x01, 0x00, 0x00, 0x9c, 0xf9, 0xff, 0xff, 0x08, 0x00, 0x00, 0x00,
  0x08, 0x01, 0x00, 0x00, 0x20, 0x00, 0x00, 0x00, 0x00, 0x00, 0x00, 0x00,
  0x00, 0x00, 0x00, 0x00, 0x00, 0x00, 0x00, 0x00, 0x00, 0x00, 0x00, 0x00,
  0x00, 0x00, 0x00, 0x00, 0x00, 0x00, 0x00, 0x00, 0x00, 0x00, 0x00, 0x00,
  0x00, 0x00, 0x00, 0x00, 0x00, 0x00, 0x00, 0x00, 0x00, 0x00, 0x00, 0x00,
  0x00, 0x00, 0x00, 0x00, 0x00, 0x00, 0x00, 0x00, 0x00, 0x00, 0x00, 0x00,
  0x00, 0x00, 0x00, 0x00, 0x00, 0x00, 0x00, 0x00, 0x00, 0x00, 0x00, 0x00,
  0x00, 0x00, 0x00, 0x00, 0x00, 0x00, 0x00, 0x00, 0x00, 0x00, 0x00, 0x00,
  0x00, 0x00, 0x00, 0x00, 0x00, 0x00, 0x00, 0x00, 0x00, 0x00, 0x00, 0x00,
  0x00, 0x00, 0x00, 0x00, 0x00, 0x00, 0x00, 0x00, 0x00, 0x00, 0x00, 0x00,
  0x00, 0x00, 0x00, 0x00, 0x00, 0x00, 0x00, 0x00, 0x00, 0x00, 0x00, 0x00,
  0x00, 0x00, 0x00, 0x00, 0x00, 0x00, 0x00, 0x00, 0x00, 0x00, 0x00, 0x00,
  0x00, 0x00, 0x00, 0x00, 0x00, 0x00, 0x00, 0x00, 0x00, 0x00, 0x00, 0x00,
  0x00, 0x00, 0x00, 0x00, 0x00, 0x00, 0x00, 0x00, 0x00, 0x00, 0x00, 0x00,
  0x00, 0x00, 0x00, 0x00, 0x00, 0x00, 0x00, 0x00, 0x00, 0x00, 0x00, 0x00,
  0x00, 0x00, 0x00, 0x00, 0x00, 0x00, 0x00, 0x00, 0x00, 0x00, 0x00, 0x00,
  0x00, 0x00, 0x00, 0x00, 0x00, 0x00, 0x00, 0x00, 0x00, 0x00, 0x00, 0x00,
  0x00, 0x00, 0x00, 0x00, 0x00, 0x00, 0x00, 0x00, 0x00, 0x00, 0x00, 0x00,
  0x00, 0x00, 0x00, 0x00, 0x00, 0x00, 0x00, 0x00, 0x00, 0x00, 0x00, 0x00,
  0x00, 0x00, 0x00, 0x00, 0x00, 0x00, 0x00, 0x00, 0x00, 0x00, 0x00, 0x00,
  0x00, 0x00, 0x00, 0x00, 0x00, 0x00, 0x00, 0x00, 0x00, 0x00, 0x00, 0x00,
  0x00, 0x00, 0x00, 0x00, 0x00, 0x00, 0x00, 0x00, 0x00, 0x00, 0x00, 0x00,
  0x00, 0x00, 0x00, 0x00, 0x00, 0x00, 0x00, 0x00, 0x00, 0x00, 0x00, 0x00,
  0x20, 0x00, 0x00, 0x00, 0x76, 0x15, 0x8c, 0x38, 0x4d, 0xa5, 0x99, 0x39,
  0xa7, 0x73, 0x29, 0x39, 0xb8, 0x08, 0xb2, 0x38, 0xdd, 0xe2, 0xc4, 0x38,
  0x98, 0x7b, 0xc7, 0x38, 0xf9, 0x27, 0x81, 0x39, 0x12, 0x0d, 0xd8, 0x38,
  0x39, 0xc5, 0xc0, 0x38, 0x92, 0x15, 0xe0, 0x38, 0x5b, 0xd1, 0x9f, 0x38,
  0xdd, 0xbe, 0xbb, 0x38, 0x75, 0xb7, 0xa4, 0x38, 0xb4, 0x8f, 0x95, 0x38,
  0x01, 0xc2, 0x9c, 0x38, 0x64, 0x21, 0xd5, 0x38, 0x86, 0x80, 0x0c, 0x39,
  0xb5, 0xfa, 0x3d, 0x39, 0x2e, 0x7c, 0x04, 0x39, 0xea, 0x21, 0xca, 0x38,
  0x03, 0x65, 0xa4, 0x38, 0xd4, 0x04, 0xe5, 0x38, 0x80, 0x0e, 0x4f, 0x39,
  0xeb, 0xda, 0x4a, 0x39, 0x1d, 0xa9, 0xf4, 0x38, 0x3e, 0x74, 0x39, 0x39,
  0xaa, 0x59, 0x3c, 0x39, 0xef, 0x14, 0xbd, 0x38, 0x5e, 0x12, 0x26, 0x39,
  0xaa, 0x57, 0xf8, 0x38, 0xc3, 0x0b, 0xff, 0x38, 0x51, 0x57, 0x1d, 0x39,
  0x19, 0x00, 0x00, 0x00, 0x6d, 0x6f, 0x64, 0x65, 0x6c, 0x2f, 0x74, 0x66,
  0x2e, 0x6d, 0x61, 0x74, 0x68, 0x2e, 0x61, 0x64, 0x64, 0x5f, 0x31, 0x2f,
  0x41, 0x64, 0x64, 0x2f, 0x79, 0x00, 0x00, 0x00, 0x01, 0x00, 0x00, 0x00,
  0x20, 0x00, 0x00, 0x00, 0x8a, 0xfb, 0xff, 0xff, 0x00, 0x00, 0x00, 0x01,
  0x14, 0x00, 0x00, 0x00, 0xe4, 0x00, 0x00, 0x00, 0x09, 0x00, 0x00, 0x00,
  0x00, 0x00, 0x00, 0x09, 0x04, 0x01, 0x00, 0x00, 0x74, 0xfb, 0xff, 0xff,
  0x08, 0x00, 0x00, 0x00, 0x88, 0x00, 0x00, 0x00, 0x10, 0x00, 0x00, 0x00,
  0x00, 0x00, 0x00, 0x00, 0x00, 0x00, 0x00, 0x00, 0x00, 0x00, 0x00, 0x00,
  0x00, 0x00, 0x00, 0x00, 0x00, 0x00, 0x00, 0x00, 0x00, 0x00, 0x00, 0x00,
  0x00, 0x00, 0x00, 0x00, 0x00, 0x00, 0x00, 0x00, 0x00, 0x00, 0x00, 0x00,
  0x00, 0x00, 0x00, 0x00, 0x00, 0x00, 0x00, 0x00, 0x00, 0x00, 0x00, 0x00,
  0x00, 0x00, 0x00, 0x00, 0x00, 0x00, 0x00, 0x00, 0x00, 0x00, 0x00, 0x00,
  0x00, 0x00, 0x00, 0x00, 0x00, 0x00, 0x00, 0x00, 0x00, 0x00, 0x00, 0x00,
  0x00, 0x00, 0x00, 0x00, 0x00, 0x00, 0x00, 0x00, 0x00, 0x00, 0x00, 0x00,
  0x00, 0x00, 0x00, 0x00, 0x00, 0x00, 0x00, 0x00, 0x00, 0x00, 0x00, 0x00,
  0x00, 0x00, 0x00, 0x00, 0x00, 0x00, 0x00, 0x00, 0x00, 0x00, 0x00, 0x00,
  0x00, 0x00, 0x00, 0x00, 0x00, 0x00, 0x00, 0x00, 0x00, 0x00, 0x00, 0x00,
  0x00, 0x00, 0x00, 0x00, 0x00, 0x00, 0x00, 0x00, 0x10, 0x00, 0x00, 0x00,
  0x9f, 0x14, 0x5a, 0x3b, 0x14, 0xb2, 0xb6, 0x3b, 0x2e, 0x64, 0xfe, 0x3b,
  0x2d, 0xd9, 0x8c, 0x3b, 0x44, 0x2a, 0x7b, 0x3b, 0xdb, 0xf5, 0x87, 0x3b,
  0x2f, 0xb0, 0xb7, 0x3b, 0x71, 0xde, 0x7c, 0x3b, 0x57, 0xef, 0x34, 0x3b,
  0xfb, 0x10, 0x53, 0x3b, 0xd9, 0xb8, 0x8b, 0x3b, 0x30, 0x56, 0x87, 0x3b,
  0xd2, 0xcd, 0x7b, 0x3b, 0xee, 0x2c, 0x8e, 0x3b, 0xba, 0x35, 0xd3, 0x3b,
  0x73, 0x28, 0x84, 0x3b, 0x25, 0x00, 0x00, 0x00, 0x6d, 0x6f, 0x64, 0x65,
  0x6c, 0x2f, 0x74, 0x66, 0x2e, 0x63, 0x6f, 0x6d, 0x70, 0x61, 0x74, 0x2e,
  0x76, 0x31, 0x2e, 0x6e, 0x6e, 0x2e, 0x63, 0x6f, 0x6e, 0x76, 0x31, 0x64,
  0x5f, 0x32, 0x2f, 0x63, 0x6f, 0x6e, 0x76, 0x31, 0x64, 0x00, 0x00, 0x00,
  0x04, 0x00, 0x00, 0x00, 0x10, 0x00, 0x00, 0x00, 0x01, 0x00, 0x00, 0x00,
  0x03, 0x00, 0x00, 0x00, 0x20, 0x00, 0x00, 0x00, 0xba, 0xfc, 0xff, 0xff,
  0x00, 0x00, 0x00, 0x01, 0x14, 0x00, 0x00, 0x00, 0xe4, 0x00, 0x00, 0x00,
  0x08, 0x00, 0x00, 0x00, 0x00, 0x00, 0x00, 0x02, 0xf8, 0x00, 0x00, 0x00,
  0xa4, 0xfc, 0xff, 0xff, 0x08, 0x00, 0x00, 0x00, 0x88, 0x00, 0x00, 0x00,
  0x10, 0x00, 0x00, 0x00, 0x00, 0x00, 0x00, 0x00, 0x00, 0x00, 0x00, 0x00,
  0x00, 0x00, 0x00, 0x00, 0x00, 0x00, 0x00, 0x00, 0x00, 0x00, 0x00, 0x00,
  0x00, 0x00, 0x00, 0x00, 0x00, 0x00, 0x00, 0x00, 0x00, 0x00, 0x00, 0x00,
  0x00, 0x00, 0x00, 0x00, 0x00, 0x00, 0x00, 0x00, 0x00, 0x00, 0x00, 0x00,
  0x00, 0x00, 0x00, 0x00, 0x00, 0x00, 0x00, 0x00, 0x00, 0x00, 0x00, 0x00,
  0x00, 0x00, 0x00, 0x00, 0x00, 0x00, 0x00, 0x00, 0x00, 0x00, 0x00, 0x00,
  0x00, 0x00, 0x00, 0x00, 0x00, 0x00, 0x00, 0x00, 0x00, 0x00, 0x00, 0x00,
  0x00, 0x00, 0x00, 0x00, 0x00, 0x00, 0x00, 0x00, 0x00, 0x00, 0x00, 0x00,
  0x00, 0x00, 0x00, 0x00, 0x00, 0x00, 0x00, 0x00, 0x00, 0x00, 0x00, 0x00,
  0x00, 0x00, 0x00, 0x00, 0x00, 0x00, 0x00, 0x00, 0x00, 0x00, 0x00, 0x00,
  0x00, 0x00, 0x00, 0x00, 0x00, 0x00, 0x00, 0x00, 0x00, 0x00, 0x00, 0x00,
  0x10, 0x00, 0x00, 0x00, 0xd3, 0x10, 0x52, 0x39, 0x33, 0xfb, 0xaf, 0x39,
  0xc2, 0x0a, 0xf5, 0x39, 0x04, 0xac, 0x87, 0x39, 0x32, 0xef, 0x71, 0x39,
  0xae, 0xf6, 0x82, 0x39, 0xf7, 0xef, 0xb0, 0x39, 0x57, 0x93, 0x73, 0x39,
  0x07, 0x49, 0x2e, 0x39, 0x2d, 0x4f, 0x4b, 0x39, 0x48, 0x96, 0x86, 0x39,
  0xe2, 0x5c, 0x82, 0x39, 0xbd, 0x8c, 0x72, 0x39, 0x48, 0xf3, 0x88, 0x39,
  0x93, 0x72, 0xcb, 0x39, 0x19, 0x9a, 0x7e, 0x39, 0x19, 0x00, 0x00, 0x00,
  0x6d, 0x6f, 0x64, 0x65, 0x6c, 0x2f, 0x74, 0x66, 0x2e, 0x6d, 0x61, 0x74,
  0x68, 0x2e, 0x61, 0x64, 0x64, 0x5f, 0x32, 0x2f, 0x41, 0x64, 0x64, 0x2f,
  0x79, 0x00, 0x00, 0x00, 0x01, 0x00, 0x00, 0x00, 0x10, 0x00, 0x00, 0x00,
  0xd2, 0xfd, 0xff, 0xff, 0x00, 0x00, 0x00, 0x01, 0x14, 0x00, 0x00, 0x00,
  0x34, 0x00, 0x00, 0x00, 0x07, 0x00, 0x00, 0x00, 0x00, 0x00, 0x00, 0x09,
  0x4c, 0x00, 0x00, 0x00, 0xbc, 0xfd, 0xff, 0xff, 0x08, 0x00, 0x00, 0x00,
  0x14, 0x00, 0x00, 0x00, 0x01, 0x00, 0x00, 0x00, 0x00, 0x00, 0x00, 0x00,
  0x00, 0x00, 0x00, 0x00, 0x00, 0x00, 0x00, 0x00, 0x01, 0x00, 0x00, 0x00,
  0xa3, 0x4b, 0x99, 0x3a, 0x1d, 0x00, 0x00, 0x00, 0x6d, 0x6f, 0x64, 0x65,
  0x6c, 0x2f, 0x74, 0x66, 0x2e, 0x6c, 0x69, 0x6e, 0x61, 0x6c, 0x67, 0x2e,
  0x6d, 0x61, 0x74, 0x6d, 0x75, 0x6c, 0x2f, 0x4d, 0x61, 0x74, 0x4d, 0x75,
  0x6c, 0x00, 0x00, 0x00, 0x02, 0x00, 0x00, 0x00, 0x05, 0x00, 0x00, 0x00,
  0xd0, 0x00, 0x00, 0x00, 0x42, 0xfe, 0xff, 0xff, 0x00, 0x00, 0x00, 0x01,
  0x14, 0x00, 0x00, 0x00, 0x34, 0x00, 0x00, 0x00, 0x06, 0x00, 0x00, 0x00,
  0x00, 0x00, 0x00, 0x02, 0x4c, 0x00, 0x00, 0x00, 0x2c, 0xfe, 0xff, 0xff,
  0x08, 0x00, 0x00, 0x00, 0x14, 0x00, 0x00, 0x00, 0x01, 0x00, 0x00, 0x00,
  0x00, 0x00, 0x00, 0x00, 0x00, 0x00, 0x00, 0x00, 0x00, 0x00, 0x00, 0x00,
  0x01, 0x00, 0x00, 0x00, 0x9c, 0x13, 0xd9, 0x38, 0x1c, 0x00, 0x00, 0x00,
  0x6d, 0x6f, 0x64, 0x65, 0x6c, 0x2f, 0x74, 0x66, 0x2e, 0x5f, 0x5f, 0x6f,
  0x70, 0x65, 0x72, 0x61, 0x74, 0x6f, 0x72, 0x73, 0x5f, 0x5f, 0x2e, 0x61,
  0x64, 0x64, 0x2f, 0x79, 0x00, 0x00, 0x00, 0x00, 0x01, 0x00, 0x00, 0x00,
  0x05, 0x00, 0x00, 0x00, 0xae, 0xfe, 0xff, 0xff, 0x00, 0x00, 0x00, 0x01,
  0x14, 0x00, 0x00, 0x00, 0x14, 0x00, 0x00, 0x00, 0x05, 0x00, 0x00, 0x00,
  0x00, 0x00, 0x00, 0x02, 0x20, 0x00, 0x00, 0x00, 0x10, 0xff, 0xff, 0xff,
  0x13, 0x00, 0x00, 0x00, 0x6d, 0x6f, 0x64, 0x65, 0x6c, 0x2f, 0x66, 0x6c,
  0x61, 0x74, 0x74, 0x65, 0x6e, 0x2f, 0x43, 0x6f, 0x6e, 0x73, 0x74, 0x00,
  0x01, 0x00, 0x00, 0x00, 0x02, 0x00, 0x00, 0x00, 0xee, 0xfe, 0xff, 0xff,
  0x00, 0x00, 0x00, 0x01, 0x14, 0x00, 0x00, 0x00, 0x14, 0x00, 0x00, 0x00,
  0x04, 0x00, 0x00, 0x00, 0x00, 0x00, 0x00, 0x02, 0x38, 0x00, 0x00, 0x00,
  0x50, 0xff, 0xff, 0xff, 0x2b, 0x00, 0x00, 0x00, 0x6d, 0x6f, 0x64, 0x65,
  0x6c, 0x2f, 0x74, 0x66, 0x2e, 0x63, 0x6f, 0x6d, 0x70, 0x61, 0x74, 0x2e,
  0x76, 0x31, 0x2e, 0x74, 0x72, 0x61, 0x6e, 0x73, 0x70, 0x6f, 0x73, 0x65,
  0x2f, 0x74, 0x72, 0x61, 0x6e, 0x73, 0x70, 0x6f, 0x73, 0x65, 0x2f, 0x70,
  0x65, 0x72, 0x6d, 0x00, 0x01, 0x00, 0x00, 0x00, 0x03, 0x00, 0x00, 0x00,
  0x46, 0xff, 0xff, 0xff, 0x00, 0x00, 0x00, 0x01, 0x14, 0x00, 0x00, 0x00,
  0x14, 0x00, 0x00, 0x00, 0x03, 0x00, 0x00, 0x00, 0x00, 0x00, 0x00, 0x02,
  0x38, 0x00, 0x00, 0x00, 0xa8, 0xff, 0xff, 0xff, 0x2a, 0x00, 0x00, 0x00,
  0x6d, 0x6f, 0x64, 0x65, 0x6c, 0x2f, 0x74, 0x66, 0x2e, 0x6e, 0x6e, 0x2e,
  0x6d, 0x61, 0x78, 0x5f, 0x70, 0x6f, 0x6f, 0x6c, 0x31, 0x64, 0x5f, 0x32,
  0x2f, 0x4d, 0x61, 0x78, 0x50, 0x6f, 0x6f, 0x6c, 0x31, 0x64, 0x2f, 0x53,
  0x71, 0x75, 0x65, 0x65, 0x7a, 0x65, 0x00, 0x00, 0x01, 0x00, 0x00, 0x00,
  0x03, 0x00, 0x00, 0x00, 0x9e, 0xff, 0xff, 0xff, 0x00, 0x00, 0x00, 0x01,
  0x18, 0x00, 0x00, 0x00, 0x18, 0x00, 0x00, 0x00, 0x02, 0x00, 0x00, 0x00,
  0x00, 0x00, 0x00, 0x02, 0x40, 0x00, 0x00, 0x00, 0x04, 0x00, 0x04, 0x00,
  0x04, 0x00, 0x00, 0x00, 0x2e, 0x00, 0x00, 0x00, 0x6d, 0x6f, 0x64, 0x65,
  0x6c, 0x2f, 0x74, 0x66, 0x2e, 0x63, 0x6f, 0x6d, 0x70, 0x61, 0x74, 0x2e,
  0x76, 0x31, 0x2e, 0x6e, 0x6e, 0x2e, 0x63, 0x6f, 0x6e, 0x76, 0x31, 0x64,
  0x2f, 0x63, 0x6f, 0x6e, 0x76, 0x31, 0x64, 0x2f, 0x45, 0x78, 0x70, 0x61,
  0x6e, 0x64, 0x44, 0x69, 0x6d, 0x73, 0x00, 0x00, 0x01, 0x00, 0x00, 0x00,
  0x04, 0x00, 0x00, 0x00, 0x00, 0x00, 0x16, 0x00, 0x1c, 0x00, 0x18, 0x00,
  0x17, 0x00, 0x10, 0x00, 0x0c, 0x00, 0x08, 0x00, 0x00, 0x00, 0x00, 0x00,
  0x00, 0x00, 0x07, 0x00, 0x16, 0x00, 0x00, 0x00, 0x00, 0x00, 0x00, 0x01,
  0x20, 0x00, 0x00, 0x00, 0x40, 0x00, 0x00, 0x00, 0x01, 0x00, 0x00, 0x00,
  0x00, 0x00, 0x00, 0x09, 0x50, 0x00, 0x00, 0x00, 0x0c, 0x00, 0x0c, 0x00,
  0x00, 0x00, 0x00, 0x00, 0x08, 0x00, 0x04, 0x00, 0x0c, 0x00, 0x00, 0x00,
  0x08, 0x00, 0x00, 0x00, 0x14, 0x00, 0x00, 0x00, 0x01, 0x00, 0x00, 0x00,
  0x80, 0xff, 0xff, 0xff, 0xff, 0xff, 0xff, 0xff, 0x00, 0x00, 0x00, 0x00,
  0x01, 0x00, 0x00, 0x00, 0x81, 0x80, 0x80, 0x3b, 0x17, 0x00, 0x00, 0x00,
  0x73, 0x65, 0x72, 0x76, 0x69, 0x6e, 0x67, 0x5f, 0x64, 0x65, 0x66, 0x61,
  0x75, 0x6c, 0x74, 0x5f, 0x69, 0x6e, 0x70, 0x75, 0x74, 0x3a, 0x30, 0x00,
  0x03, 0x00, 0x00, 0x00, 0x01, 0x00, 0x00, 0x00, 0x77, 0x00, 0x00, 0x00,
  0x06, 0x00, 0x00, 0x00, 0x06, 0x00, 0x00, 0x00, 0x80, 0x00, 0x00, 0x00,
  0x60, 0x00, 0x00, 0x00, 0x40, 0x00, 0x00, 0x00, 0x2c, 0x00, 0x00, 0x00,
  0x18, 0x00, 0x00, 0x00, 0x04, 0x00, 0x00, 0x00, 0xc0, 0xff, 0xff, 0xff,
  0x19, 0x00, 0x00, 0x00, 0x02, 0x00, 0x00, 0x00, 0x00, 0x00, 0x00, 0x19,
  0xd0, 0xff, 0xff, 0xff, 0x09, 0x00, 0x00, 0x00, 0x04, 0x00, 0x00, 0x00,
  0x00, 0x00, 0x00, 0x09, 0xe0, 0xff, 0xff, 0xff, 0x27, 0x00, 0x00, 0x00,
  0x02, 0x00, 0x00, 0x00, 0x00, 0x00, 0x00, 0x27, 0xf0, 0xff, 0xff, 0xff,
  0x11, 0x00, 0x00, 0x00, 0x02, 0x00, 0x00, 0x00, 0x00, 0x00, 0x00, 0x11,
  0x0c, 0x00, 0x10, 0x00, 0x0f, 0x00, 0x00, 0x00, 0x08, 0x00, 0x04, 0x00,
  0x0c, 0x00, 0x00, 0x00, 0x03, 0x00, 0x00, 0x00, 0x03, 0x00, 0x00, 0x00,
  0x00, 0x00, 0x00, 0x03, 0x0c, 0x00, 0x0c, 0x00, 0x0b, 0x00, 0x00, 0x00,
  0x00, 0x00, 0x04, 0x00, 0x0c, 0x00, 0x00, 0x00, 0x16, 0x00, 0x00, 0x00,
  0x00, 0x00, 0x00, 0x16
};
unsigned int quantized_model_tflite_len = 13912;
